{
  "version": "1.0",
  "truncation": null,
  "padding": null,
  "added_tokens": [
    {
      "id": 0,
      "content": "[PAD]",
      "single_word": false,
      "lstrip": false,
      "rstrip": false,
      "normalized": false,
      "special": true
    },
    {
      "id": 1,
      "content": "[UNK]",
      "single_word": false,
      "lstrip": false,
      "rstrip": false,
      "normalized": false,
      "special": true
    },
    {
      "id": 2,
      "content": "[CLS]",
      "single_word": false,
      "lstrip": false,
      "rstrip": false,
      "normalized": false,
      "special": true
    },
    {
      "id": 3,
      "content": "[SEP]",
      "single_word": false,
      "lstrip": false,
      "rstrip": false,
      "normalized": false,
      "special": true
    },
    {
      "id": 4,
      "content": "[MASK]",
      "single_word": false,
      "lstrip": false,
      "rstrip": false,
      "normalized": false,
      "special": true
    }
  ],
  "normalizer": null,
  "pre_tokenizer": {
    "type": "Whitespace"
  },
  "post_processor": {
    "type": "TemplateProcessing",
    "single": [
      {
        "Sequence": {
          "id": "A",
          "type_id": 0
        }
      }
    ],
    "pair": [
      {
        "Sequence": {
          "id": "A",
          "type_id": 0
        }
      },
      {
        "Sequence": {
          "id": "B",
          "type_id": 1
        }
      }
    ],
    "special_tokens": {}
  },
  "decoder": null,
  "model": {
    "type": "BPE",
    "dropout": null,
    "unk_token": "[UNK]",
    "continuing_subword_prefix": null,
    "end_of_word_suffix": null,
    "fuse_unk": false,
    "byte_fallback": false,
    "ignore_merges": false,
    "vocab": {
      "[PAD]": 0,
      "[UNK]": 1,
      "[CLS]": 2,
      "[SEP]": 3,
      "[MASK]": 4,
      "!": 5,
      "\"": 6,
      "#": 7,
      "$": 8,
      "%": 9,
      "&": 10,
      "'": 11,
      "(": 12,
      ")": 13,
      "*": 14,
      "+": 15,
      ",": 16,
      "-": 17,
      ".": 18,
      "/": 19,
      "0": 20,
      "1": 21,
      "2": 22,
      "3": 23,
      "4": 24,
      "5": 25,
      "6": 26,
      "7": 27,
      "8": 28,
      "9": 29,
      ":": 30,
      ";": 31,
      "<": 32,
      "=": 33,
      ">": 34,
      "?": 35,
      "@": 36,
      "A": 37,
      "B": 38,
      "C": 39,
      "D": 40,
      "E": 41,
      "F": 42,
      "G": 43,
      "H": 44,
      "I": 45,
      "J": 46,
      "K": 47,
      "L": 48,
      "M": 49,
      "N": 50,
      "O": 51,
      "P": 52,
      "Q": 53,
      "R": 54,
      "S": 55,
      "T": 56,
      "U": 57,
      "V": 58,
      "W": 59,
      "X": 60,
      "Y": 61,
      "Z": 62,
      "[": 63,
      "\\": 64,
      "]": 65,
      "^": 66,
      "_": 67,
      "`": 68,
      "a": 69,
      "b": 70,
      "c": 71,
      "d": 72,
      "e": 73,
      "f": 74,
      "g": 75,
      "h": 76,
      "i": 77,
      "j": 78,
      "k": 79,
      "l": 80,
      "m": 81,
      "n": 82,
      "o": 83,
      "p": 84,
      "q": 85,
      "r": 86,
      "s": 87,
      "t": 88,
      "u": 89,
      "v": 90,
      "w": 91,
      "x": 92,
      "y": 93,
      "z": 94,
      "{": 95,
      "|": 96,
      "}": 97,
      "~": 98,
      "": 99,
      "": 100,
      "": 101,
      "": 102,
      "": 103,
      "": 104,
      "": 105,
      "": 106,
      "": 107,
      "": 108,
      "": 109,
      "": 110,
      "": 111,
      "": 112,
      "": 113,
      "": 114,
      "": 115,
      "": 116,
      "": 117,
      "": 118,
      "": 119,
      "": 120,
      "": 121,
      "": 122,
      "": 123,
      "": 124,
      "¡": 125,
      "¢": 126,
      "£": 127,
      "¤": 128,
      "¥": 129,
      "¦": 130,
      "§": 131,
      "©": 132,
      "«": 133,
      "¬": 134,
      "­": 135,
      "®": 136,
      "°": 137,
      "±": 138,
      "¶": 139,
      "·": 140,
      "»": 141,
      "½": 142,
      "¿": 143,
      "À": 144,
      "Á": 145,
      "Â": 146,
      "Ã": 147,
      "Ä": 148,
      "Å": 149,
      "Æ": 150,
      "Ç": 151,
      "È": 152,
      "É": 153,
      "Ê": 154,
      "Ë": 155,
      "Ì": 156,
      "Í": 157,
      "Î": 158,
      "Ï": 159,
      "Ð": 160,
      "Ñ": 161,
      "Ò": 162,
      "Ó": 163,
      "Ô": 164,
      "Õ": 165,
      "Ö": 166,
      "×": 167,
      "Ø": 168,
      "Ù": 169,
      "Ú": 170,
      "Û": 171,
      "Ü": 172,
      "Ý": 173,
      "Þ": 174,
      "ß": 175,
      "à": 176,
      "á": 177,
      "â": 178,
      "ã": 179,
      "ä": 180,
      "å": 181,
      "æ": 182,
      "ç": 183,
      "è": 184,
      "é": 185,
      "ê": 186,
      "ë": 187,
      "ì": 188,
      "í": 189,
      "î": 190,
      "ï": 191,
      "ð": 192,
      "ñ": 193,
      "ò": 194,
      "ó": 195,
      "ô": 196,
      "õ": 197,
      "ö": 198,
      "÷": 199,
      "ø": 200,
      "ù": 201,
      "ú": 202,
      "û": 203,
      "ü": 204,
      "ý": 205,
      "þ": 206,
      "ÿ": 207,
      "Ā": 208,
      "ā": 209,
      "ă": 210,
      "ą": 211,
      "Ć": 212,
      "ć": 213,
      "ĉ": 214,
      "Č": 215,
      "č": 216,
      "Đ": 217,
      "đ": 218,
      "Ē": 219,
      "ē": 220,
      "ĕ": 221,
      "ė": 222,
      "ę": 223,
      "ě": 224,
      "Ĝ": 225,
      "ĝ": 226,
      "ğ": 227,
      "ġ": 228,
      "ĥ": 229,
      "ĩ": 230,
      "Ī": 231,
      "ī": 232,
      "į": 233,
      "İ": 234,
      "ı": 235,
      "ĵ": 236,
      "Ķ": 237,
      "Ļ": 238,
      "ļ": 239,
      "Ľ": 240,
      "Ł": 241,
      "ł": 242,
      "ń": 243,
      "ņ": 244,
      "ň": 245,
      "ŋ": 246,
      "Ō": 247,
      "ō": 248,
      "ŏ": 249,
      "ő": 250,
      "Œ": 251,
      "œ": 252,
      "ř": 253,
      "Ś": 254,
      "ś": 255,
      "ŝ": 256,
      "Ş": 257,
      "ş": 258,
      "Š": 259,
      "š": 260,
      "ţ": 261,
      "ũ": 262,
      "ū": 263,
      "ŭ": 264,
      "ů": 265,
      "ű": 266,
      "Ź": 267,
      "ź": 268,
      "Ż": 269,
      "ż": 270,
      "Ž": 271,
      "ž": 272,
      "Ǝ": 273,
      "ơ": 274,
      "ư": 275,
      "ǃ": 276,
      "ǎ": 277,
      "ǔ": 278,
      "Ǧ": 279,
      "ș": 280,
      "ț": 281,
      "ɐ": 282,
      "ɑ": 283,
      "ɒ": 284,
      "ɔ": 285,
      "ɖ": 286,
      "ɘ": 287,
      "ə": 288,
      "ɛ": 289,
      "ɡ": 290,
      "ɣ": 291,
      "ɥ": 292,
      "ɦ": 293,
      "ɪ": 294,
      "ɫ": 295,
      "ɳ": 296,
      "ɶ": 297,
      "ɾ": 298,
      "ʁ": 299,
      "ʃ": 300,
      "ʊ": 301,
      "ʋ": 302,
      "ʌ": 303,
      "ʒ": 304,
      "ʔ": 305,
      "ʝ": 306,
      "ʻ": 307,
      "ʼ": 308,
      "ʾ": 309,
      "ʿ": 310,
      "ˀ": 311,
      "ˈ": 312,
      "ˌ": 313,
      "ː": 314,
      "ν": 315,
      "״": 316,
      "ـ": 317,
      "١": 318,
      "٢": 319,
      "٦": 320,
      "٧": 321,
      "ආ": 322,
      "ජ": 323,
      "බ": 324,
      "ය": 325,
      "ව": 326,
      "ා": 327,
      "ු": 328,
      "ේ": 329,
      "ෝ": 330,
      "ḍ": 331,
      "ḏ": 332,
      "Ḥ": 333,
      "ḥ": 334,
      "ḫ": 335,
      "ḷ": 336,
      "ṃ": 337,
      "ṅ": 338,
      "ṣ": 339,
      "Ṭ": 340,
      "ṭ": 341,
      "Ṯ": 342,
      "ẓ": 343,
      "ẞ": 344,
      "ả": 345,
      "ấ": 346,
      "ắ": 347,
      "Ẹ": 348,
      "ẽ": 349,
      "ế": 350,
      "ề": 351,
      "ễ": 352,
      "ệ": 353,
      "ị": 354,
      "ọ": 355,
      "ố": 356,
      "ồ": 357,
      "ổ": 358,
      "ộ": 359,
      "ớ": 360,
      "ờ": 361,
      "ụ": 362,
      "ỹ": 363,
      "​": 364,
      "‍": 365,
      "‎": 366,
      "‏": 367,
      "‐": 368,
      "–": 369,
      "—": 370,
      "―": 371,
      "‘": 372,
      "’": 373,
      "‚": 374,
      "“": 375,
      "”": 376,
      "„": 377,
      "†": 378,
      "•": 379,
      "‰": 380,
      "′": 381,
      "⁄": 382,
      "⁠": 383,
      "₤": 384,
      "₩": 385,
      "€": 386,
      "₹": 387,
      "™": 388,
      "↑": 389,
      "→": 390,
      "↫": 391,
      "∂": 392,
      "−": 393,
      "∗": 394,
      "⋅": 395,
      "─": 396,
      "★": 397,
      "☆": 398,
      "☉": 399,
      "☻": 400,
      "♠": 401,
      "♥": 402,
      "♪": 403,
      "♫": 404,
      "✚": 405,
      "⟨": 406,
      "⟩": 407,
      "、": 408,
      "ー": 409,
      "꞉": 410,
      "ﬂ": 411,
      "�": 412,
      "👽": 413,
      "th": 414,
      "in": 415,
      "er": 416,
      "an": 417,
      "ou": 418,
      "the": 419,
      "on": 420,
      "at": 421,
      "re": 422,
      "is": 423,
      "to": 424,
      "en": 425,
      "ing": 426,
      "it": 427,
      "ed": 428,
      "as": 429,
      "and": 430,
      "ll": 431,
      "or": 432,
      "es": 433,
      "ar": 434,
      "you": 435,
      "he": 436,
      "HI": 437,
      "of": 438,
      "CHI": 439,
      "me": 440,
      "OT": 441,
      "MOT": 442,
      "le": 443,
      "wh": 444,
      "no": 445,
      "st": 446,
      "se": 447,
      "al": 448,
      "ha": 449,
      "be": 450,
      "ay": 451,
      "ic": 452,
      "ve": 453,
      "that": 454,
      "ere": 455,
      "ro": 456,
      "gh": 457,
      "id": 458,
      "ch": 459,
      "was": 460,
      "ld": 461,
      "do": 462,
      "go": 463,
      "ut": 464,
      "all": 465,
      "ad": 466,
      "for": 467,
      "ke": 468,
      "ver": 469,
      "..": 470,
      "so": 471,
      "wi": 472,
      "ac": 473,
      "ri": 474,
      "li": 475,
      "we": 476,
      "ent": 477,
      "lo": 478,
      "ir": 479,
      "ght": 480,
      "co": 481,
      "ion": 482,
      "ly": 483,
      "et": 484,
      "one": 485,
      "un": 486,
      "ho": 487,
      "what": 488,
      "now": 489,
      "out": 490,
      "mo": 491,
      "are": 492,
      "with": 493,
      "hi": 494,
      "ter": 495,
      "ok": 496,
      "am": 497,
      "ab": 498,
      "ther": 499,
      "ur": 500,
      "ea": 501,
      "us": 502,
      "up": 503,
      "ne": 504,
      "nd": 505,
      "this": 506,
      "his": 507,
      "ag": 508,
      "The": 509,
      "my": 510,
      "ould": 511,
      "ce": 512,
      "have": 513,
      "not": 514,
      "her": 515,
      "ti": 516,
      "AT": 517,
      "od": 518,
      "sa": 519,
      "xx": 520,
      "FAT": 521,
      "pe": 522,
      "ta": 523,
      "ust": 524,
      "po": 525,
      "...": 526,
      "they": 527,
      "au": 528,
      "ant": 529,
      "she": 530,
      "know": 531,
      "can": 532,
      "um": 533,
      "pl": 534,
      "te": 535,
      "de": 536,
      "ry": 537,
      "thing": 538,
      "if": 539,
      "there": 540,
      "but": 541,
      "some": 542,
      "had": 543,
      "il": 544,
      "our": 545,
      "fe": 546,
      "ra": 547,
      "here": 548,
      "rom": 549,
      "bo": 550,
      "don": 551,
      "eah": 552,
      "na": 553,
      "It": 554,
      "your": 555,
      "man": 556,
      "did": 557,
      "He": 558,
      "wn": 559,
      "like": 560,
      "ma": 561,
      "get": 562,
      "art": 563,
      "ack": 564,
      "him": 565,
      "hat": 566,
      "by": 567,
      "from": 568,
      "ill": 569,
      "res": 570,
      "ation": 571,
      "con": 572,
      "very": 573,
      "est": 574,
      "see": 575,
      "om": 576,
      "ers": 577,
      "You": 578,
      "way": 579,
      "ul": 580,
      "op": 581,
      "ink": 582,
      "ess": 583,
      "wor": 584,
      "right": 585,
      "ard": 586,
      "who": 587,
      "ie": 588,
      "ct": 589,
      "ound": 590,
      "were": 591,
      "ight": 592,
      "com": 593,
      "wo": 594,
      "said": 595,
      "ong": 596,
      "itt": 597,
      "ap": 598,
      "ate": 599,
      "ind": 600,
      "yeah": 601,
      "ig": 602,
      "qu": 603,
      "them": 604,
      "oh": 605,
      "end": 606,
      "su": 607,
      "fo": 608,
      "about": 609,
      "ge": 610,
      "ow": 611,
      "We": 612,
      "ck": 613,
      "ber": 614,
      "any": 615,
      "how": 616,
      "ast": 617,
      "ist": 618,
      "just": 619,
      "other": 620,
      "ex": 621,
      "im": 622,
      "look": 623,
      "ain": 624,
      "xxx": 625,
      "day": 626,
      "20": 627,
      "want": 628,
      "ep": 629,
      "19": 630,
      "would": 631,
      "ice": 632,
      "think": 633,
      "ally": 634,
      "el": 635,
      "got": 636,
      "when": 637,
      "ive": 638,
      "ol": 639,
      "And": 640,
      "sh": 641,
      "pro": 642,
      "ough": 643,
      "ish": 644,
      "ich": 645,
      "say": 646,
      "then": 647,
      "ick": 648,
      "ittle": 649,
      "red": 650,
      "will": 651,
      "where": 652,
      "ment": 653,
      "No": 654,
      "IN": 655,
      "pp": 656,
      "ven": 657,
      "].": 658,
      "int": 659,
      "ine": 660,
      "little": 661,
      "put": 662,
      "ear": 663,
      "uh": 664,
      "more": 665,
      "af": 666,
      "bl": 667,
      "der": 668,
      "time": 669,
      "sp": 670,
      ".\"": 671,
      "AR": 672,
      "--": 673,
      "ous": 674,
      "has": 675,
      "king": 676,
      "good": 677,
      "ty": 678,
      "tr": 679,
      "ide": 680,
      "come": 681,
      "two": 682,
      "ite": 683,
      "over": 684,
      "ca": 685,
      "back": 686,
      "ity": 687,
      "cau": 688,
      "could": 689,
      "been": 690,
      "off": 691,
      "yes": 692,
      "okay": 693,
      "What": 694,
      "down": 695,
      "ree": 696,
      "going": 697,
      "let": 698,
      "which": 699,
      "ace": 700,
      "ort": 701,
      "cause": 702,
      "per": 703,
      "their": 704,
      "oun": 705,
      "MAR": 706,
      "age": 707,
      "well": 708,
      "She": 709,
      "lau": 710,
      "sto": 711,
      "sel": 712,
      "gu": 713,
      "ase": 714,
      "di": 715,
      "laugh": 716,
      "gr": 717,
      "But": 718,
      "ople": 719,
      "read": 720,
      "si": 721,
      "Mar": 722,
      "ci": 723,
      "So": 724,
      ",\"": 725,
      "In": 726,
      "play": 727,
      "ans": 728,
      "reat": 729,
      "Th": 730,
      "than": 731,
      "cl": 732,
      "ple": 733,
      "act": 734,
      "too": 735,
      "ade": 736,
      "br": 737,
      "tell": 738,
      "people": 739,
      "INV": 740,
      "onna": 741,
      "call": 742,
      "irst": 743,
      "ure": 744,
      "urn": 745,
      "ild": 746,
      "ot": 747,
      "make": 748,
      "ang": 749,
      "ought": 750,
      "mer": 751,
      "into": 752,
      "fa": 753,
      "ved": 754,
      "ater": 755,
      "ass": 756,
      "orn": 757,
      "gonna": 758,
      "fore": 759,
      "mber": 760,
      "ies": 761,
      "take": 762,
      "pr": 763,
      "ble": 764,
      "tal": 765,
      "part": 766,
      "ret": 767,
      "self": 768,
      "Oh": 769,
      "ves": 770,
      "does": 771,
      "able": 772,
      "again": 773,
      "ph": 774,
      "car": 775,
      "first": 776,
      "ving": 777,
      "RO": 778,
      "Ro": 779,
      "Wh": 780,
      "IS": 781,
      "went": 782,
      "That": 783,
      "after": 784,
      "ance": 785,
      "work": 786,
      "ren": 787,
      "mu": 788,
      "ue": 789,
      "bet": 790,
      "dis": 791,
      "new": 792,
      "came": 793,
      "ss": 794,
      "cho": 795,
      "ary": 796,
      "add": 797,
      "why": 798,
      "la": 799,
      "St": 800,
      "year": 801,
      "ps": 802,
      "only": 803,
      "every": 804,
      "iss": 805,
      "happ": 806,
      "long": 807,
      "Chi": 808,
      "They": 809,
      "tor": 810,
      "laughs": 811,
      "wr": 812,
      "gl": 813,
      "ia": 814,
      "Mr": 815,
      "didn": 816,
      "bu": 817,
      "need": 818,
      "old": 819,
      "should": 820,
      "because": 821,
      "Ch": 822,
      "something": 823,
      "ys": 824,
      "try": 825,
      "ouse": 826,
      "ts": 827,
      "SIS": 828,
      "made": 829,
      "Yeah": 830,
      "pres": 831,
      "hm": 832,
      "ose": 833,
      "won": 834,
      "row": 835,
      "Well": 836,
      "ru": 837,
      "ian": 838,
      "much": 839,
      "rough": 840,
      "mon": 841,
      "ks": 842,
      "hand": 843,
      "these": 844,
      "ting": 845,
      "atch": 846,
      "BRO": 847,
      "fer": 848,
      "zz": 849,
      "ence": 850,
      "ser": 851,
      "wa": 852,
      "wan": 853,
      "mean": 854,
      "eat": 855,
      "em": 856,
      "ins": 857,
      "irl": 858,
      "This": 859,
      "huh": 860,
      "really": 861,
      "cle": 862,
      "min": 863,
      "its": 864,
      "ave": 865,
      "three": 866,
      "big": 867,
      "most": 868,
      "ull": 869,
      "hel": 870,
      "may": 871,
      "ran": 872,
      "through": 873,
      "ated": 874,
      "mother": 875,
      "hun": 876,
      "ions": 877,
      "Un": 878,
      "bab": 879,
      "Mom": 880,
      "clo": 881,
      "child": 882,
      "before": 883,
      "head": 884,
      "ked": 885,
      "ise": 886,
      "never": 887,
      "ody": 888,
      "wer": 889,
      "ile": 890,
      "under": 891,
      "ever": 892,
      "still": 893,
      "sing": 894,
      "girl": 895,
      "201": 896,
      "also": 897,
      "even": 898,
      "land": 899,
      "mar": 900,
      "pt": 901,
      "med": 902,
      "ff": 903,
      "great": 904,
      "sha": 905,
      "ob": 906,
      "There": 907,
      "rea": 908,
      "many": 909,
      "?\"": 910,
      "away": 911,
      "ful": 912,
      "sc": 913,
      "pos": 914,
      "coun": 915,
      "bro": 916,
      "wanna": 917,
      "llow": 918,
      "body": 919,
      "turn": 920,
      "ord": 921,
      "use": 922,
      "Co": 923,
      "thought": 924,
      "ward": 925,
      "kes": 926,
      "night": 927,
      "give": 928,
      "Yes": 929,
      "ud": 930,
      "cha": 931,
      "room": 932,
      "last": 933,
      "house": 934,
      "name": 935,
      "ye": 936,
      "les": 937,
      "those": 938,
      "home": 939,
      "Do": 940,
      "book": 941,
      "start": 942,
      "men": 943,
      "ried": 944,
      "uck": 945,
      "ft": 946,
      "port": 947,
      "happen": 948,
      "another": 949,
      "ms": 950,
      "An": 951,
      "fri": 952,
      "ire": 953,
      "doing": 954,
      "ited": 955,
      "ah": 956,
      "UR": 957,
      "must": 958,
      "things": 959,
      "stand": 960,
      "av": 961,
      "ates": 962,
      "sho": 963,
      "own": 964,
      "che": 965,
      "member": 966,
      "gg": 967,
      "ign": 968,
      "help": 969,
      "ict": 970,
      "chool": 971,
      ".]": 972,
      "side": 973,
      "air": 974,
      "find": 975,
      "used": 976,
      "tain": 977,
      "sup": 978,
      "friend": 979,
      "lie": 980,
      "inter": 981,
      "fin": 982,
      "show": 983,
      "four": 984,
      "ball": 985,
      "ds": 986,
      "sure": 987,
      "point": 988,
      "light": 989,
      "00": 990,
      "boy": 991,
      "sm": 992,
      "ily": 993,
      "called": 994,
      "Ne": 995,
      "ina": 996,
      "kind": 997,
      "ars": 998,
      "gi": 999,
      "ten": 1000,
      "ton": 1001,
      "oney": 1002,
      "HE": 1003,
      "comp": 1004,
      "Be": 1005,
      "sil": 1006,
      "ways": 1007,
      "tra": 1008,
      "love": 1009,
      "place": 1010,
      "cour": 1011,
      "cer": 1012,
      "low": 1013,
      "vo": 1014,
      "found": 1015,
      "years": 1016,
      "each": 1017,
      "If": 1018,
      "set": 1019,
      "spe": 1020,
      "Is": 1021,
      "ction": 1022,
      "father": 1023,
      "des": 1024,
      "AN": 1025,
      "URS": 1026,
      "done": 1027,
      "care": 1028,
      "ious": 1029,
      "xt": 1030,
      "better": 1031,
      "Re": 1032,
      "tim": 1033,
      "cr": 1034,
      "vis": 1035,
      "ings": 1036,
      "ical": 1037,
      "might": 1038,
      "ger": 1039,
      "Go": 1040,
      "ready": 1041,
      "att": 1042,
      "How": 1043,
      "iz": 1044,
      "keep": 1045,
      "inn": 1046,
      "ress": 1047,
      "around": 1048,
      "ces": 1049,
      "feel": 1050,
      "such": 1051,
      "run": 1052,
      "school": 1053,
      "water": 1054,
      "bit": 1055,
      "ican": 1056,
      "less": 1057,
      "cent": 1058,
      "Mommy": 1059,
      "All": 1060,
      "dif": 1061,
      "cont": 1062,
      "ors": 1063,
      "being": 1064,
      "bed": 1065,
      "born": 1066,
      "son": 1067,
      "life": 1068,
      "five": 1069,
      "als": 1070,
      "ince": 1071,
      "pre": 1072,
      "told": 1073,
      "ident": 1074,
      "ny": 1075,
      "while": 1076,
      "Amer": 1077,
      "mp": 1078,
      "hold": 1079,
      "cond": 1080,
      "vers": 1081,
      "anything": 1082,
      "pol": 1083,
      "wait": 1084,
      "CO": 1085,
      "Al": 1086,
      "baby": 1087,
      "Why": 1088,
      "dr": 1089,
      "Mark": 1090,
      "ele": 1091,
      "jo": 1092,
      "num": 1093,
      "next": 1094,
      "par": 1095,
      "pret": 1096,
      "Lo": 1097,
      "lot": 1098,
      "beg": 1099,
      "open": 1100,
      "str": 1101,
      "ket": 1102,
      "De": 1103,
      "mhm": 1104,
      "else": 1105,
      "En": 1106,
      "ank": 1107,
      "mag": 1108,
      "talk": 1109,
      "ush": 1110,
      "same": 1111,
      "ries": 1112,
      "ced": 1113,
      "arm": 1114,
      "pie": 1115,
      "ream": 1116,
      "saw": 1117,
      "Ar": 1118,
      "fl": 1119,
      "lt": 1120,
      "fun": 1121,
      "ually": 1122,
      "took": 1123,
      "col": 1124,
      "nice": 1125,
      "always": 1126,
      "pers": 1127,
      "ash": 1128,
      "orry": 1129,
      "watch": 1130,
      "je": 1131,
      "pri": 1132,
      "though": 1133,
      "rest": 1134,
      "comm": 1135,
      "doesn": 1136,
      "full": 1137,
      "ons": 1138,
      "!\"": 1139,
      "Don": 1140,
      "top": 1141,
      "ations": 1142,
      "silver": 1143,
      "ga": 1144,
      "ute": 1145,
      "led": 1146,
      "remember": 1147,
      "fr": 1148,
      "pick": 1149,
      "ens": 1150,
      "high": 1151,
      "fam": 1152,
      "ister": 1153,
      "Now": 1154,
      "brea": 1155,
      "kay": 1156,
      "six": 1157,
      "ared": 1158,
      "On": 1159,
      "My": 1160,
      "du": 1161,
      "dog": 1162,
      "��": 1163,
      "200": 1164,
      "mus": 1165,
      "left": 1166,
      "bus": 1167,
      "times": 1168,
      "wal": 1169,
      "gre": 1170,
      "unti": 1171,
      "real": 1172,
      "ched": 1173,
      "ken": 1174,
      "sound": 1175,
      "ition": 1176,
      "wee": 1177,
      "hip": 1178,
      "known": 1179,
      "net": 1180,
      "vent": 1181,
      "Ho": 1182,
      "died": 1183,
      "bir": 1184,
      "vie": 1185,
      "ese": 1186,
      "world": 1187,
      "gether": 1188,
      "black": 1189,
      "ational": 1190,
      "stu": 1191,
      "cy": 1192,
      "ith": 1193,
      "cted": 1194,
      "cess": 1195,
      "ER": 1196,
      "gen": 1197,
      "United": 1198,
      "Br": 1199,
      "stick": 1200,
      "hard": 1201,
      "Ma": 1202,
      "stay": 1203,
      "Then": 1204,
      "ctor": 1205,
      "atter": 1206,
      "number": 1207,
      "For": 1208,
      "money": 1209,
      "When": 1210,
      "together": 1211,
      "mm": 1212,
      "please": 1213,
      "ub": 1214,
      "Fr": 1215,
      "belie": 1216,
      "nothing": 1217,
      "202": 1218,
      "Se": 1219,
      "sur": 1220,
      "outh": 1221,
      "Mo": 1222,
      "ished": 1223,
      "ween": 1224,
      "18": 1225,
      "differ": 1226,
      "dred": 1227,
      "King": 1228,
      "ng": 1229,
      "coming": 1230,
      "amp": 1231,
      "ak": 1232,
      "hear": 1233,
      "lad": 1234,
      "New": 1235,
      "arn": 1236,
      "aw": 1237,
      "hundred": 1238,
      "fall": 1239,
      "ste": 1240,
      "As": 1241,
      "eng": 1242,
      "Okay": 1243,
      "ath": 1244,
      "ark": 1245,
      "ach": 1246,
      "lly": 1247,
      "course": 1248,
      "mind": 1249,
      "Miss": 1250,
      "mas": 1251,
      "ump": 1252,
      "kill": 1253,
      "ES": 1254,
      "bad": 1255,
      "nor": 1256,
      "American": 1257,
      "says": 1258,
      "sit": 1259,
      "ased": 1260,
      "door": 1261,
      "upon": 1262,
      "sle": 1263,
      "Can": 1264,
      "ness": 1265,
      "looking": 1266,
      "pu": 1267,
      "enough": 1268,
      "song": 1269,
      "happened": 1270,
      "Mrs": 1271,
      "plan": 1272,
      "dat": 1273,
      "list": 1274,
      "until": 1275,
      "face": 1276,
      "At": 1277,
      "form": 1278,
      "far": 1279,
      "ris": 1280,
      "ug": 1281,
      "orning": 1282,
      "cur": 1283,
      "Ross": 1284,
      "table": 1285,
      "ange": 1286,
      "isn": 1287,
      "cut": 1288,
      "present": 1289,
      "ME": 1290,
      "Engl": 1291,
      "vi": 1292,
      "LD": 1293,
      "round": 1294,
      "eyes": 1295,
      "children": 1296,
      "Bo": 1297,
      "best": 1298,
      "spo": 1299,
      "quite": 1300,
      "between": 1301,
      "hal": 1302,
      "ask": 1303,
      "asked": 1304,
      "haf": 1305,
      "ici": 1306,
      "sorry": 1307,
      "pped": 1308,
      "blo": 1309,
      "sy": 1310,
      "hafta": 1311,
      "cons": 1312,
      "Bro": 1313,
      "himself": 1314,
      "alright": 1315,
      "To": 1316,
      "199": 1317,
      "mb": 1318,
      "morning": 1319,
      "fi": 1320,
      "\".": 1321,
      "ze": 1322,
      "pen": 1323,
      "small": 1324,
      "mil": 1325,
      "His": 1326,
      "Jan": 1327,
      "both": 1328,
      "Just": 1329,
      "reg": 1330,
      "phone": 1331,
      "den": 1332,
      "ted": 1333,
      "once": 1334,
      "Joh": 1335,
      "pass": 1336,
      "dist": 1337,
      "une": 1338,
      "music": 1339,
      "flo": 1340,
      "hur": 1341,
      "nam": 1342,
      "seen": 1343,
      "uring": 1344,
      "Hey": 1345,
      "base": 1346,
      "dam": 1347,
      "young": 1348,
      "order": 1349,
      "May": 1350,
      "aren": 1351,
      "Let": 1352,
      "wanted": 1353,
      "win": 1354,
      "cord": 1355,
      "THE": 1356,
      "dri": 1357,
      "addy": 1358,
      "ures": 1359,
      "mor": 1360,
      "aut": 1361,
      "heard": 1362,
      "without": 1363,
      "ling": 1364,
      "near": 1365,
      "against": 1366,
      "leave": 1367,
      "ef": 1368,
      "Come": 1369,
      "ones": 1370,
      "knew": 1371,
      "talking": 1372,
      "pap": 1373,
      "second": 1374,
      "today": 1375,
      "pretty": 1376,
      "States": 1377,
      "uary": 1378,
      "ross": 1379,
      "lar": 1380,
      "story": 1381,
      "word": 1382,
      "ered": 1383,
      "few": 1384,
      "John": 1385,
      "town": 1386,
      "quest": 1387,
      "heart": 1388,
      "getting": 1389,
      "miss": 1390,
      "different": 1391,
      "ING": 1392,
      "goes": 1393,
      "erm": 1394,
      "shall": 1395,
      "eath": 1396,
      "),": 1397,
      "later": 1398,
      "Coun": 1399,
      "Ind": 1400,
      "person": 1401,
      "God": 1402,
      "sk": 1403,
      "everything": 1404,
      "Sar": 1405,
      "gra": 1406,
      "yet": 1407,
      "ters": 1408,
      "ics": 1409,
      "ont": 1410,
      "looked": 1411,
      "Le": 1412,
      "cap": 1413,
      "thank": 1414,
      "io": 1415,
      "move": 1416,
      "tory": 1417,
      "eight": 1418,
      "char": 1419,
      "kid": 1420,
      "LO": 1421,
      "gy": 1422,
      "whole": 1423,
      "gave": 1424,
      "days": 1425,
      "cup": 1426,
      "lle": 1427,
      "stop": 1428,
      "Er": 1429,
      "half": 1430,
      "fire": 1431,
      "soon": 1432,
      "cial": 1433,
      "ring": 1434,
      "qui": 1435,
      "sleep": 1436,
      "sent": 1437,
      "mom": 1438,
      "hung": 1439,
      "wasn": 1440,
      "city": 1441,
      "ular": 1442,
      "ason": 1443,
      "itch": 1444,
      "ult": 1445,
      "live": 1446,
      "follow": 1447,
      "pict": 1448,
      "write": 1449,
      "food": 1450,
      "maybe": 1451,
      "cat": 1452,
      "lay": 1453,
      "hum": 1454,
      "ls": 1455,
      "UN": 1456,
      "family": 1457,
      "magnet": 1458,
      "tre": 1459,
      "tri": 1460,
      "having": 1461,
      "dro": 1462,
      "hands": 1463,
      "meet": 1464,
      "dec": 1465,
      "beaut": 1466,
      "hor": 1467,
      "raw": 1468,
      "ney": 1469,
      "believe": 1470,
      "voice": 1471,
      "zzz": 1472,
      "girls": 1473,
      "Some": 1474,
      "val": 1475,
      "198": 1476,
      "Who": 1477,
      ").": 1478,
      "oud": 1479,
      "Po": 1480,
      "key": 1481,
      "anim": 1482,
      "cus": 1483,
      "ants": 1484,
      "eral": 1485,
      "gone": 1486,
      "bur": 1487,
      "since": 1488,
      "cal": 1489,
      "makes": 1490,
      "making": 1491,
      "lan": 1492,
      "vol": 1493,
      "band": 1494,
      "Not": 1495,
      "spea": 1496,
      "pop": 1497,
      "bring": 1498,
      "dear": 1499,
      "foot": 1500,
      "piece": 1501,
      "appe": 1502,
      "rain": 1503,
      "ject": 1504,
      "ON": 1505,
      "ama": 1506,
      "started": 1507,
      "thir": 1508,
      "tern": 1509,
      "wonder": 1510,
      "llo": 1511,
      "Com": 1512,
      "10": 1513,
      "ung": 1514,
      "dow": 1515,
      "iness": 1516,
      "looks": 1517,
      "brother": 1518,
      "INV1": 1519,
      "drink": 1520,
      "hour": 1521,
      "rew": 1522,
      "pain": 1523,
      "main": 1524,
      "build": 1525,
      "ating": 1526,
      "RE": 1527,
      "bar": 1528,
      "hey": 1529,
      "saying": 1530,
      "Ed": 1531,
      "fif": 1532,
      "nina": 1533,
      "eas": 1534,
      "cover": 1535,
      "moment": 1536,
      "OU": 1537,
      "trying": 1538,
      "already": 1539,
      "mis": 1540,
      "hungry": 1541,
      "writ": 1542,
      "whe": 1543,
      "dire": 1544,
      "omen": 1545,
      "Sarah": 1546,
      "almost": 1547,
      "wood": 1548,
      "Where": 1549,
      "Look": 1550,
      "means": 1551,
      "wrong": 1552,
      "war": 1553,
      "wenty": 1554,
      "clear": 1555,
      "break": 1556,
      "comes": 1557,
      "answer": 1558,
      "ground": 1559,
      "Did": 1560,
      "woman": 1561,
      "Nor": 1562,
      "yellow": 1563,
      "Are": 1564,
      "understand": 1565,
      "box": 1566,
      "along": 1567,
      "ning": 1568,
      "fight": 1569,
      "country": 1570,
      "friends": 1571,
      "wards": 1572,
      "paper": 1573,
      "ond": 1574,
      "week": 1575,
      "ike": 1576,
      "return": 1577,
      "ago": 1578,
      "plac": 1579,
      "doll": 1580,
      "train": 1581,
      "197": 1582,
      "ual": 1583,
      "iful": 1584,
      "cks": 1585,
      "pa": 1586,
      "ustr": 1587,
      "sun": 1588,
      "fro": 1589,
      "Car": 1590,
      "matter": 1591,
      "happy": 1592,
      "COL": 1593,
      "playing": 1594,
      "One": 1595,
      "Her": 1596,
      "fect": 1597,
      "cri": 1598,
      "igh": 1599,
      "sort": 1600,
      "fine": 1601,
      "polit": 1602,
      "Will": 1603,
      "que": 1604,
      "fly": 1605,
      "uhhuh": 1606,
      "Thank": 1607,
      "ither": 1608,
      "cept": 1609,
      "gent": 1610,
      "sol": 1611,
      "Ju": 1612,
      "rel": 1613,
      "sl": 1614,
      "oup": 1615,
      "sub": 1616,
      "Af": 1617,
      "stru": 1618,
      "actually": 1619,
      "game": 1620,
      "lead": 1621,
      "wouldn": 1622,
      "tle": 1623,
      "Pr": 1624,
      "became": 1625,
      "incl": 1626,
      "\",": 1627,
      "ouch": 1628,
      "serv": 1629,
      "fast": 1630,
      "law": 1631,
      "pill": 1632,
      "ities": 1633,
      "pound": 1634,
      "ier": 1635,
      "twenty": 1636,
      "ages": 1637,
      "ped": 1638,
      "Je": 1639,
      "cli": 1640,
      "press": 1641,
      "ivers": 1642,
      "white": 1643,
      "guess": 1644,
      "ised": 1645,
      "leg": 1646,
      "ster": 1647,
      "ya": 1648,
      "began": 1649,
      "line": 1650,
      "Good": 1651,
      "guy": 1652,
      "ative": 1653,
      "state": 1654,
      "fair": 1655,
      "Jo": 1656,
      "Adam": 1657,
      "words": 1658,
      "laughing": 1659,
      "Gr": 1660,
      "ital": 1661,
      "publ": 1662,
      "ner": 1663,
      "rist": 1664,
      "reet": 1665,
      "ene": 1666,
      "taken": 1667,
      "possi": 1668,
      "cil": 1669,
      "close": 1670,
      "party": 1671,
      "fully": 1672,
      "----": 1673,
      "death": 1674,
      "pect": 1675,
      "proble": 1676,
      "guys": 1677,
      "beautiful": 1678,
      "poor": 1679,
      "dy": 1680,
      "egg": 1681,
      "case": 1682,
      "AI": 1683,
      "tele": 1684,
      "idea": 1685,
      "turned": 1686,
      "certain": 1687,
      "stuff": 1688,
      "hair": 1689,
      "lost": 1690,
      "Wor": 1691,
      "Right": 1692,
      "NA": 1693,
      "pur": 1694,
      "sign": 1695,
      "sof": 1696,
      "fact": 1697,
      "blue": 1698,
      "played": 1699,
      "met": 1700,
      ".”": 1701,
      "vel": 1702,
      "Ger": 1703,
      "points": 1704,
      "gan": 1705,
      "listen": 1706,
      "196": 1707,
      "wish": 1708,
      "hope": 1709,
      "pay": 1710,
      "ines": 1711,
      "unch": 1712,
      "interest": 1713,
      "Pro": 1714,
      "pal": 1715,
      "bear": 1716,
      "boys": 1717,
      "during": 1718,
      "ator": 1719,
      "contin": 1720,
      "ield": 1721,
      "English": 1722,
      "bably": 1723,
      "ial": 1724,
      "swe": 1725,
      "brought": 1726,
      "thy": 1727,
      "ail": 1728,
      "arch": 1729,
      "Ge": 1730,
      "sister": 1731,
      "Per": 1732,
      "learn": 1733,
      "team": 1734,
      "movie": 1735,
      "vision": 1736,
      "EN": 1737,
      "seven": 1738,
      "Me": 1739,
      "tive": 1740,
      "month": 1741,
      "chair": 1742,
      "ake": 1743,
      "17": 1744,
      "Man": 1745,
      "ouble": 1746,
      "fell": 1747,
      "Or": 1748,
      "job": 1749,
      "vill": 1750,
      "till": 1751,
      "vid": 1752,
      "change": 1753,
      "Con": 1754,
      "count": 1755,
      "ison": 1756,
      "Mot": 1757,
      "wand": 1758,
      "road": 1759,
      "ety": 1760,
      "bot": 1761,
      "green": 1762,
      "pose": 1763,
      "mine": 1764,
      "ino": 1765,
      "someone": 1766,
      "hind": 1767,
      "ww": 1768,
      "bum": 1769,
      "rid": 1770,
      "inc": 1771,
      "aul": 1772,
      "produ": 1773,
      "cry": 1774,
      "hot": 1775,
      "GLO": 1776,
      "aught": 1777,
      "gover": 1778,
      "Sh": 1779,
      "AL": 1780,
      "ents": 1781,
      "wel": 1782,
      "plain": 1783,
      "cir": 1784,
      "ists": 1785,
      "minute": 1786,
      "fort": 1787,
      "RI": 1788,
      "wants": 1789,
      ",”": 1790,
      "lease": 1791,
      "pull": 1792,
      "dead": 1793,
      "late": 1794,
      "ended": 1795,
      "herself": 1796,
      "ery": 1797,
      "felt": 1798,
      "ames": 1799,
      "ments": 1800,
      "sen": 1801,
      "exc": 1802,
      "inner": 1803,
      "MEL": 1804,
      "Your": 1805,
      "letter": 1806,
      "After": 1807,
      "posed": 1808,
      "teach": 1809,
      "Fe": 1810,
      "probably": 1811,
      "Fran": 1812,
      "sir": 1813,
      "rench": 1814,
      "ham": 1815,
      "Ex": 1816,
      "tly": 1817,
      "myself": 1818,
      "couldn": 1819,
      "Par": 1820,
      "gotta": 1821,
      "ork": 1822,
      "Sep": 1823,
      "wever": 1824,
      "15": 1825,
      "power": 1826,
      "Dr": 1827,
      "quick": 1828,
      "short": 1829,
      "Ben": 1830,
      "dle": 1831,
      "sim": 1832,
      "ati": 1833,
      "tember": 1834,
      "Phi": 1835,
      "seemed": 1836,
      "front": 1837,
      "utes": 1838,
      "gar": 1839,
      "strong": 1840,
      "12": 1841,
      "San": 1842,
      "morrow": 1843,
      "aged": 1844,
      "sal": 1845,
      "tape": 1846,
      "Te": 1847,
      "ged": 1848,
      "ica": 1849,
      "dress": 1850,
      "September": 1851,
      "ied": 1852,
      "pounds": 1853,
      "IT": 1854,
      "lived": 1855,
      "selves": 1856,
      "birth": 1857,
      "195": 1858,
      "194": 1859,
      "Sp": 1860,
      "sat": 1861,
      "eter": 1862,
      "grand": 1863,
      "lady": 1864,
      "ather": 1865,
      "whis": 1866,
      "floor": 1867,
      "mid": 1868,
      "color": 1869,
      "County": 1870,
      "oc": 1871,
      "rather": 1872,
      "behind": 1873,
      "sec": 1874,
      "anger": 1875,
      "Christ": 1876,
      "TO": 1877,
      "range": 1878,
      "question": 1879,
      "haps": 1880,
      "milk": 1881,
      "national": 1882,
      "January": 1883,
      "Gu": 1884,
      "business": 1885,
      "Here": 1886,
      "cot": 1887,
      "EX": 1888,
      "inde": 1889,
      "inside": 1890,
      "import": 1891,
      "Of": 1892,
      "France": 1893,
      "cook": 1894,
      "women": 1895,
      "deal": 1896,
      "pon": 1897,
      "ousand": 1898,
      "walk": 1899,
      "itting": 1900,
      "taking": 1901,
      "fle": 1902,
      "allow": 1903,
      "aim": 1904,
      "field": 1905,
      "picture": 1906,
      "fish": 1907,
      "roll": 1908,
      "oo": 1909,
      "outside": 1910,
      "da": 1911,
      "grow": 1912,
      "16": 1913,
      "haven": 1914,
      "Cha": 1915,
      "cas": 1916,
      "prom": 1917,
      "cold": 1918,
      "true": 1919,
      "2022": 1920,
      "II": 1921,
      "gn": 1922,
      "ann": 1923,
      "Brit": 1924,
      "alone": 1925,
      "mi": 1926,
      "minutes": 1927,
      "uro": 1928,
      "creat": 1929,
      "buy": 1930,
      "given": 1931,
      "app": 1932,
      "Mic": 1933,
      "March": 1934,
      "30": 1935,
      "yep": 1936,
      "thousand": 1937,
      "az": 1938,
      "hon": 1939,
      "album": 1940,
      "frog": 1941,
      "airs": 1942,
      "Tr": 1943,
      "rian": 1944,
      "ises": 1945,
      "Paul": 1946,
      "With": 1947,
      "Aug": 1948,
      "Pe": 1949,
      "iversity": 1950,
      "ju": 1951,
      "takes": 1952,
      "atur": 1953,
      "stead": 1954,
      "Har": 1955,
      "Fo": 1956,
      "ices": 1957,
      "Daddy": 1958,
      "ined": 1959,
      "push": 1960,
      "nment": 1961,
      "Dav": 1962,
      "tree": 1963,
      "board": 1964,
      "mill": 1965,
      "prof": 1966,
      "Mother": 1967,
      "chang": 1968,
      "bas": 1969,
      "gets": 1970,
      "ats": 1971,
      "yourself": 1972,
      "view": 1973,
      "cor": 1974,
      "August": 1975,
      "cast": 1976,
      "vor": 1977,
      "French": 1978,
      "yup": 1979,
      "ues": 1980,
      "funny": 1981,
      "Oc": 1982,
      "US": 1983,
      "mun": 1984,
      "butter": 1985,
      "oper": 1986,
      "record": 1987,
      "step": 1988,
      "dream": 1989,
      "fifty": 1990,
      "GR": 1991,
      "ale": 1992,
      "bye": 1993,
      "aterpill": 1994,
      "ury": 1995,
      "van": 1996,
      "os": 1997,
      "often": 1998,
      "CHILD": 1999,
      "window": 2000,
      "wife": 2001,
      "feet": 2002,
      "speak": 2003,
      "working": 2004,
      "noise": 2005,
      "Mon": 2006,
      "CH": 2007,
      "pot": 2008,
      "ution": 2009,
      "YOU": 2010,
      "sw": 2011,
      "hurt": 2012,
      "cake": 2013,
      "dad": 2014,
      "dark": 2015,
      "wear": 2016,
      "conf": 2017,
      "test": 2018,
      "aster": 2019,
      "Rus": 2020,
      "tom": 2021,
      "joy": 2022,
      "area": 2023,
      "lea": 2024,
      "named": 2025,
      "fac": 2026,
      "Because": 2027,
      "Apri": 2028,
      "April": 2029,
      "class": 2030,
      "York": 2031,
      "tem": 2032,
      "emp": 2033,
      "fee": 2034,
      "horse": 2035,
      "rele": 2036,
      "rep": 2037,
      "quiet": 2038,
      "Ab": 2039,
      "ley": 2040,
      "draw": 2041,
      "large": 2042,
      "tea": 2043,
      "ey": 2044,
      "GAI": 2045,
      "leng": 2046,
      "living": 2047,
      "ai": 2048,
      "daught": 2049,
      "iously": 2050,
      "World": 2051,
      "Octo": 2052,
      "Pres": 2053,
      "14": 2054,
      "ider": 2055,
      "teen": 2056,
      "jump": 2057,
      "suc": 2058,
      "ES_": 2059,
      "least": 2060,
      "childes": 2061,
      "CHILDES_": 2062,
      "CHILDES_NA": 2063,
      "Every": 2064,
      "October": 2065,
      "reason": 2066,
      "held": 2067,
      "raid": 2068,
      "Please": 2069,
      "bes": 2070,
      "sometimes": 2071,
      "iled": 2072,
      "tried": 2073,
      "ford": 2074,
      "Sun": 2075,
      "fig": 2076,
      "LE": 2077,
      "stairs": 2078,
      "aterpillar": 2079,
      "tin": 2080,
      "ides": 2081,
      "mur": 2082,
      "Ber": 2083,
      "free": 2084,
      "sea": 2085,
      "Chris": 2086,
      "ific": 2087,
      "AS": 2088,
      "star": 2089,
      "possible": 2090,
      "Geor": 2091,
      "company": 2092,
      "stud": 2093,
      "lives": 2094,
      "ional": 2095,
      "ism": 2096,
      "ized": 2097,
      "mouth": 2098,
      "either": 2099,
      "langu": 2100,
      "sum": 2101,
      "puts": 2102,
      "important": 2103,
      "ately": 2104,
      "bow": 2105,
      "13": 2106,
      "OR": 2107,
      "moon": 2108,
      "nine": 2109,
      "bor": 2110,
      "street": 2111,
      "Char": 2112,
      "others": 2113,
      "ature": 2114,
      "send": 2115,
      "urch": 2116,
      "fing": 2117,
      "rece": 2118,
      "peri": 2119,
      "mess": 2120,
      "tired": 2121,
      "kids": 2122,
      "ony": 2123,
      "anks": 2124,
      "killed": 2125,
      "cu": 2126,
      "attack": 2127,
      "wall": 2128,
      "abo": 2129,
      "itten": 2130,
      "past": 2131,
      "camp": 2132,
      "claim": 2133,
      "ude": 2134,
      "Euro": 2135,
      "organ": 2136,
      "Ah": 2137,
      "uth": 2138,
      "report": 2139,
      "worth": 2140,
      "animals": 2141,
      "yy": 2142,
      "����": 2143,
      "rown": 2144,
      "fix": 2145,
      "sold": 2146,
      "2017": 2147,
      "stem": 2148,
      "early": 2149,
      "Marky": 2150,
      "11": 2151,
      "ilt": 2152,
      "ula": 2153,
      "clean": 2154,
      "glad": 2155,
      "toy": 2156,
      "trouble": 2157,
      "squ": 2158,
      "ining": 2159,
      "become": 2160,
      "includ": 2161,
      "colle": 2162,
      "War": 2163,
      "ili": 2164,
      "ned": 2165,
      "tomorrow": 2166,
      "eating": 2167,
      "touch": 2168,
      "thinking": 2169,
      "toys": 2170,
      "corn": 2171,
      "nin": 2172,
      "doctor": 2173,
      "lls": 2174,
      "fic": 2175,
      "across": 2176,
      "ana": 2177,
      "Bl": 2178,
      "Ke": 2179,
      "released": 2180,
      "ik": 2181,
      "among": 2182,
      "books": 2183,
      "000": 2184,
      "sounds": 2185,
      "singing": 2186,
      "hit": 2187,
      "David": 2188,
      "Bar": 2189,
      "raz": 2190,
      "cried": 2191,
      "gun": 2192,
      "group": 2193,
      "Russi": 2194,
      "worked": 2195,
      "throw": 2196,
      "moved": 2197,
      "bag": 2198,
      "oub": 2199,
      "finished": 2200,
      "sever": 2201,
      "velo": 2202,
      "cing": 2203,
      "Ill": 2204,
      "check": 2205,
      "problem": 2206,
      "Mm": 2207,
      "25": 2208,
      "match": 2209,
      "places": 2210,
      "Lu": 2211,
      "dden": 2212,
      "chance": 2213,
      "daddy": 2214,
      "itty": 2215,
      "daughter": 2216,
      "offee": 2217,
      "somebody": 2218,
      "vide": 2219,
      "University": 2220,
      "Ital": 2221,
      "HS": 2222,
      "married": 2223,
      "pet": 2224,
      "birthday": 2225,
      "public": 2226,
      "gram": 2227,
      "ete": 2228,
      "log": 2229,
      "Min": 2230,
      "ler": 2231,
      "ches": 2232,
      "sed": 2233,
      "ards": 2234,
      "refer": 2235,
      "cket": 2236,
      "shi": 2237,
      "afraid": 2238,
      "July": 2239,
      "Rep": 2240,
      "single": 2241,
      "sudden": 2242,
      "loud": 2243,
      "gas": 2244,
      "kept": 2245,
      "inning": 2246,
      "eye": 2247,
      "ship": 2248,
      "AUN": 2249,
      "ip": 2250,
      "pping": 2251,
      "Mary": 2252,
      "caterpillar": 2253,
      "government": 2254,
      "ato": 2255,
      "ib": 2256,
      "ician": 2257,
      "England": 2258,
      "ding": 2259,
      "ided": 2260,
      "coffee": 2261,
      "using": 2262,
      "graph": 2263,
      "hors": 2264,
      "exam": 2265,
      "Sw": 2266,
      "Sir": 2267,
      "By": 2268,
      "OK": 2269,
      "swi": 2270,
      "ically": 2271,
      "pleas": 2272,
      "Wal": 2273,
      "AND": 2274,
      "kno": 2275,
      "ility": 2276,
      "sn": 2277,
      "gold": 2278,
      "These": 2279,
      "stra": 2280,
      "honey": 2281,
      "Christmas": 2282,
      "British": 2283,
      "lling": 2284,
      "vic": 2285,
      "unt": 2286,
      "cient": 2287,
      "'.": 2288,
      "terri": 2289,
      "trans": 2290,
      "Sha": 2291,
      "jor": 2292,
      "running": 2293,
      "bath": 2294,
      "die": 2295,
      "several": 2296,
      "surpr": 2297,
      "soci": 2298,
      "dinner": 2299,
      "Ear": 2300,
      "Tom": 2301,
      "cross": 2302,
      "bra": 2303,
      "Ur": 2304,
      "inv": 2305,
      "boat": 2306,
      "iam": 2307,
      "Cap": 2308,
      "themselves": 2309,
      "Europe": 2310,
      "Get": 2311,
      "perhaps": 2312,
      "reed": 2313,
      "appro": 2314,
      "Have": 2315,
      "within": 2316,
      "months": 2317,
      "prison": 2318,
      "depart": 2319,
      "slow": 2320,
      "President": 2321,
      "Dad": 2322,
      "flow": 2323,
      "goin": 2324,
      "hop": 2325,
      "position": 2326,
      "itchen": 2327,
      "hang": 2328,
      "event": 2329,
      "dom": 2330,
      "compet": 2331,
      "hy": 2332,
      "clock": 2333,
      "mommy": 2334,
      "Jack": 2335,
      "easy": 2336,
      "Cal": 2337,
      "Dor": 2338,
      "tw": 2339,
      "noises": 2340,
      "works": 2341,
      "thor": 2342,
      "TH": 2343,
      "sweet": 2344,
      "City": 2345,
      "sitting": 2346,
      "vir": 2347,
      "ref": 2348,
      "ending": 2349,
      "finish": 2350,
      "kitchen": 2351,
      "stood": 2352,
      "MA": 2353,
      "forgot": 2354,
      "standing": 2355,
      "nut": 2356,
      "]?": 2357,
      "rey": 2358,
      "Nove": 2359,
      "fil": 2360,
      "var": 2361,
      "cher": 2362,
      "knows": 2363,
      "2021": 2364,
      "ame": 2365,
      "cream": 2366,
      "stit": 2367,
      "glass": 2368,
      "whether": 2369,
      "June": 2370,
      "everybody": 2371,
      "human": 2372,
      "del": 2373,
      "rict": 2374,
      "bert": 2375,
      "November": 2376,
      "2019": 2377,
      ",--": 2378,
      "lied": 2379,
      "picks": 2380,
      "ory": 2381,
      "ened": 2382,
      "ends": 2383,
      "23": 2384,
      "thes": 2385,
      "Col": 2386,
      "Uh": 2387,
      "series": 2388,
      "gentle": 2389,
      "treat": 2390,
      "rote": 2391,
      "cell": 2392,
      "quar": 2393,
      "police": 2394,
      "Dece": 2395,
      "Febr": 2396,
      "page": 2397,
      "iday": 2398,
      "actly": 2399,
      "bird": 2400,
      "24": 2401,
      "mit": 2402,
      "seems": 2403,
      "above": 2404,
      "February": 2405,
      "rock": 2406,
      "aby": 2407,
      "covered": 2408,
      "193": 2409,
      "object": 2410,
      "system": 2411,
      "forget": 2412,
      "secret": 2413,
      "god": 2414,
      "December": 2415,
      "tiv": 2416,
      "office": 2417,
      "served": 2418,
      "wrote": 2419,
      "fit": 2420,
      ".'": 2421,
      "built": 2422,
      "uc": 2423,
      "telling": 2424,
      "Sis": 2425,
      "ride": 2426,
      "Ste": 2427,
      "cou": 2428,
      "pi": 2429,
      "ured": 2430,
      "2016": 2431,
      "Lon": 2432,
      "yours": 2433,
      "special": 2434,
      "scar": 2435,
      "arms": 2436,
      "bles": 2437,
      "South": 2438,
      "cand": 2439,
      "gue": 2440,
      "tonight": 2441,
      "mbers": 2442,
      "comple": 2443,
      "longer": 2444,
      "building": 2445,
      "National": 2446,
      "rad": 2447,
      "instead": 2448,
      "commun": 2449,
      "third": 2450,
      "Great": 2451,
      "doub": 2452,
      "HV": 2453,
      "Maybe": 2454,
      "football": 2455,
      "writing": 2456,
      "Flo": 2457,
      "heav": 2458,
      "former": 2459,
      "hours": 2460,
      "From": 2461,
      "television": 2462,
      "profess": 2463,
      "ived": 2464,
      "whisper": 2465,
      "moun": 2466,
      "whose": 2467,
      "hus": 2468,
      "burn": 2469,
      "Dan": 2470,
      "ops": 2471,
      "LLD": 2472,
      "Part": 2473,
      "Tho": 2474,
      "George": 2475,
      "HSLLD": 2476,
      "Hi": 2477,
      "however": 2478,
      "written": 2479,
      "por": 2480,
      "truck": 2481,
      "cow": 2482,
      "alth": 2483,
      "spir": 2484,
      "mpions": 2485,
      "Nina": 2486,
      "fur": 2487,
      "ounced": 2488,
      "perfect": 2489,
      "attle": 2490,
      "lands": 2491,
      "noon": 2492,
      "ba": 2493,
      "chie": 2494,
      "2015": 2495,
      "va": 2496,
      "wind": 2497,
      "LL": 2498,
      "ahead": 2499,
      "essie": 2500,
      "mach": 2501,
      "evening": 2502,
      "giving": 2503,
      "partic": 2504,
      "thirty": 2505,
      "search": 2506,
      "Any": 2507,
      "Eve": 2508,
      "wash": 2509,
      "passed": 2510,
      "TER": 2511,
      "safe": 2512,
      "enn": 2513,
      "acc": 2514,
      "whom": 2515,
      "prote": 2516,
      "success": 2517,
      "anymore": 2518,
      "dest": 2519,
      "waiting": 2520,
      "ric": 2521,
      "carry": 2522,
      "Ac": 2523,
      "vil": 2524,
      "reading": 2525,
      "president": 2526,
      "news": 2527,
      "million": 2528,
      "ences": 2529,
      "bel": 2530,
      "whatever": 2531,
      "tee": 2532,
      "space": 2533,
      "mand": 2534,
      "See": 2535,
      "ban": 2536,
      "paren": 2537,
      "warm": 2538,
      "chan": 2539,
      "ady": 2540,
      "London": 2541,
      "ples": 2542,
      "dan": 2543,
      "anyone": 2544,
      "Ser": 2545,
      "illy": 2546,
      "Home": 2547,
      "House": 2548,
      "ron": 2549,
      "Sy": 2550,
      "roy": 2551,
      "North": 2552,
      "support": 2553,
      "deep": 2554,
      "trees": 2555,
      "astic": 2556,
      "husband": 2557,
      "ED": 2558,
      "Lea": 2559,
      "cre": 2560,
      "Scot": 2561,
      "ror": 2562,
      "charac": 2563,
      "22": 2564,
      "bal": 2565,
      "save": 2566,
      "nic": 2567,
      "2020": 2568,
      "sou": 2569,
      "members": 2570,
      "orig": 2571,
      "wild": 2572,
      "mark": 2573,
      "weeks": 2574,
      "master": 2575,
      "cool": 2576,
      "lunch": 2577,
      "sand": 2578,
      "Edna": 2579,
      "post": 2580,
      "Hello": 2581,
      "sick": 2582,
      "yer": 2583,
      "Cl": 2584,
      "hole": 2585,
      "bri": 2586,
      "history": 2587,
      "broke": 2588,
      "lengthen": 2589,
      "Illustr": 2590,
      "wise": 2591,
      "umb": 2592,
      "AP": 2593,
      "ax": 2594,
      "ubl": 2595,
      "mot": 2596,
      "sna": 2597,
      "bled": 2598,
      "appeared": 2599,
      "visit": 2600,
      "seem": 2601,
      "tit": 2602,
      "iter": 2603,
      "Rich": 2604,
      "luck": 2605,
      "terday": 2606,
      "Mer": 2607,
      "putting": 2608,
      "danger": 2609,
      "fellow": 2610,
      "sport": 2611,
      "snow": 2612,
      "fear": 2613,
      "exp": 2614,
      "develo": 2615,
      "everyone": 2616,
      "straight": 2617,
      "pit": 2618,
      "Thanks": 2619,
      "Urs": 2620,
      "lor": 2621,
      "usually": 2622,
      "puzz": 2623,
      "cked": 2624,
      "river": 2625,
      "Like": 2626,
      "kiss": 2627,
      "meant": 2628,
      "icipal": 2629,
      "26": 2630,
      "stri": 2631,
      "store": 2632,
      "agon": 2633,
      "suppose": 2634,
      "plane": 2635,
      "Phil": 2636,
      "mir": 2637,
      "enter": 2638,
      "indeed": 2639,
      "holding": 2640,
      "bb": 2641,
      "tur": 2642,
      "idge": 2643,
      "certainly": 2644,
      "ara": 2645,
      "Li": 2646,
      "ply": 2647,
      "estern": 2648,
      "Pri": 2649,
      "hol": 2650,
      "ament": 2651,
      "gard": 2652,
      "ties": 2653,
      "changed": 2654,
      "Lord": 2655,
      "arri": 2656,
      "ife": 2657,
      "feeling": 2658,
      "ctive": 2659,
      "cars": 2660,
      "fill": 2661,
      "loc": 2662,
      "catch": 2663,
      "eleph": 2664,
      "lies": 2665,
      "origin": 2666,
      "logy": 2667,
      "hosp": 2668,
      ",'": 2669,
      "cannot": 2670,
      "broken": 2671,
      "returned": 2672,
      "tail": 2673,
      "concer": 2674,
      "ker": 2675,
      "pes": 2676,
      "caught": 2677,
      "lengthened": 2678,
      "yesterday": 2679,
      "ctions": 2680,
      "William": 2681,
      "chick": 2682,
      "club": 2683,
      "exactly": 2684,
      "Ele": 2685,
      "Indian": 2686,
      "Hum": 2687,
      "starts": 2688,
      "zer": 2689,
      "shot": 2690,
      "cheese": 2691,
      "pieces": 2692,
      "Roman": 2693,
      "drive": 2694,
      "blood": 2695,
      "particular": 2696,
      "Ha": 2697,
      "sus": 2698,
      "language": 2699,
      "clothes": 2700,
      "middle": 2701,
      "La": 2702,
      "studi": 2703,
      "jour": 2704,
      "ulation": 2705,
      "leaf": 2706,
      "forward": 2707,
      "softly": 2708,
      "pic": 2709,
      "hire": 2710,
      "program": 2711,
      "supposed": 2712,
      "expect": 2713,
      "appear": 2714,
      "enjoy": 2715,
      "loved": 2716,
      "decided": 2717,
      "truth": 2718,
      "West": 2719,
      "wheel": 2720,
      "Peter": 2721,
      "diffic": 2722,
      "bright": 2723,
      "horses": 2724,
      "couple": 2725,
      "liked": 2726,
      "urs": 2727,
      "general": 2728,
      "28": 2729,
      "lose": 2730,
      "rug": 2731,
      "dere": 2732,
      "ize": 2733,
      "rac": 2734,
      "vin": 2735,
      "www": 2736,
      "strange": 2737,
      "Ald": 2738,
      "gain": 2739,
      "ense": 2740,
      "offic": 2741,
      "Hen": 2742,
      "thern": 2743,
      "super": 2744,
      "south": 2745,
      "lli": 2746,
      "afternoon": 2747,
      "politician": 2748,
      "ane": 2749,
      "cost": 2750,
      "pictures": 2751,
      "Illustration": 2752,
      "21": 2753,
      "pencil": 2754,
      "Bessie": 2755,
      "ID": 2756,
      "OF": 2757,
      "Ri": 2758,
      "nel": 2759,
      "agree": 2760,
      "complete": 2761,
      "kin": 2762,
      "municipal": 2763,
      "mal": 2764,
      "pper": 2765,
      "anyway": 2766,
      "Ted": 2767,
      "following": 2768,
      "bey": 2769,
      "respon": 2770,
      "careful": 2771,
      "vice": 2772,
      "aser": 2773,
      "holds": 2774,
      "Canad": 2775,
      "Wa": 2776,
      "ald": 2777,
      "worry": 2778,
      "icy": 2779,
      "Que": 2780,
      "Ange": 2781,
      "27": 2782,
      "BE": 2783,
      "za": 2784,
      "rul": 2785,
      "iling": 2786,
      "Sunday": 2787,
      "und": 2788,
      "north": 2789,
      "fan": 2790,
      "py": 2791,
      "atic": 2792,
      "apple": 2793,
      "anybody": 2794,
      "village": 2795,
      "Sorry": 2796,
      "smo": 2797,
      "favor": 2798,
      "Vis": 2799,
      "Baby": 2800,
      "ible": 2801,
      "amer": 2802,
      "design": 2803,
      "Wo": 2804,
      "spl": 2805,
      "army": 2806,
      "beat": 2807,
      "earth": 2808,
      "action": 2809,
      "gest": 2810,
      "imag": 2811,
      "NO": 2812,
      "shout": 2813,
      "pract": 2814,
      "Em": 2815,
      "lin": 2816,
      "opened": 2817,
      "Party": 2818,
      "doubt": 2819,
      "hael": 2820,
      "gener": 2821,
      "Sup": 2822,
      "rol": 2823,
      "Cor": 2824,
      "appoint": 2825,
      "pack": 2826,
      "mes": 2827,
      "def": 2828,
      "murder": 2829,
      "nose": 2830,
      "ention": 2831,
      "pho": 2832,
      "thin": 2833,
      "department": 2834,
      "parents": 2835,
      "ges": 2836,
      "irt": 2837,
      "author": 2838,
      "needs": 2839,
      "Che": 2840,
      "ently": 2841,
      "video": 2842,
      "itor": 2843,
      "ets": 2844,
      "stopped": 2845,
      "figure": 2846,
      "Hu": 2847,
      "proper": 2848,
      "forest": 2849,
      "moving": 2850,
      "explain": 2851,
      "aint": 2852,
      "CK": 2853,
      "INV2": 2854,
      "career": 2855,
      "ix": 2856,
      "Germany": 2857,
      "ert": 2858,
      "represent": 2859,
      "issu": 2860,
      "sigh": 2861,
      "happens": 2862,
      "compan": 2863,
      "answered": 2864,
      "chief": 2865,
      "AY": 2866,
      "hello": 2867,
      "curren": 2868,
      "church": 2869,
      "WE": 2870,
      "har": 2871,
      "ben": 2872,
      "uses": 2873,
      "crying": 2874,
      "29": 2875,
      "forty": 2876,
      "summer": 2877,
      "Tell": 2878,
      "corder": 2879,
      "mad": 2880,
      "hu": 2881,
      "reco": 2882,
      "eighty": 2883,
      "Bear": 2884,
      "except": 2885,
      "heavy": 2886,
      "bread": 2887,
      "formed": 2888,
      "reach": 2889,
      "Two": 2890,
      "sli": 2891,
      "belong": 2892,
      "AD": 2893,
      "First": 2894,
      "towards": 2895,
      "rap": 2896,
      "quickly": 2897,
      "trust": 2898,
      "ashing": 2899,
      "grew": 2900,
      "Richard": 2901,
      "rup": 2902,
      "seat": 2903,
      "Austr": 2904,
      "qual": 2905,
      "Jeff": 2906,
      "German": 2907,
      "wide": 2908,
      "Am": 2909,
      "hous": 2910,
      "ming": 2911,
      "neigh": 2912,
      "cording": 2913,
      "meeting": 2914,
      "acy": 2915,
      "ceed": 2916,
      "based": 2917,
      "garden": 2918,
      "moves": 2919,
      "Austral": 2920,
      "Pol": 2921,
      "VE": 2922,
      "iced": 2923,
      "Take": 2924,
      "pati": 2925,
      "received": 2926,
      "calling": 2927,
      "flowers": 2928,
      "pan": 2929,
      "El": 2930,
      "plate": 2931,
      "card": 2932,
      "consider": 2933,
      "sight": 2934,
      "Afr": 2935,
      "--------": 2936,
      "Even": 2937,
      "jud": 2938,
      "thou": 2939,
      "ribut": 2940,
      "ky": 2941,
      "host": 2942,
      "Santa": 2943,
      "pected": 2944,
      "prin": 2945,
      "rence": 2946,
      "reached": 2947,
      "shoot": 2948,
      "Qu": 2949,
      "dish": 2950,
      "inst": 2951,
      "ROG": 2952,
      "tro": 2953,
      "Wait": 2954,
      "teacher": 2955,
      "Sm": 2956,
      "formation": 2957,
      "Doro": 2958,
      "bs": 2959,
      "List": 2960,
      "dra": 2961,
      "remain": 2962,
      "ering": 2963,
      "ances": 2964,
      "Gen": 2965,
      "ians": 2966,
      "utter": 2967,
      "GRA": 2968,
      "sex": 2969,
      "ior": 2970,
      "mic": 2971,
      "station": 2972,
      "bell": 2973,
      "juice": 2974,
      "Mac": 2975,
      "cum": 2976,
      "lex": 2977,
      "uture": 2978,
      "resh": 2979,
      "Mc": 2980,
      "Very": 2981,
      "Dorothy": 2982,
      "nobody": 2983,
      "sugg": 2984,
      "hospital": 2985,
      "park": 2986,
      "district": 2987,
      "ging": 2988,
      "season": 2989,
      "commune": 2990,
      "nur": 2991,
      "rich": 2992,
      "apan": 2993,
      "bly": 2994,
      "actor": 2995,
      "continu": 2996,
      "Tur": 2997,
      "track": 2998,
      "brown": 2999,
      "sell": 3000,
      "shoes": 3001,
      "arrow": 3002,
      "supper": 3003,
      "sad": 3004,
      "wonderful": 3005,
      "People": 3006,
      "Lou": 3007,
      "“‘": 3008,
      "letters": 3009,
      "male": 3010,
      "suit": 3011,
      "ral": 3012,
      "orange": 3013,
      "dance": 3014,
      "mate": 3015,
      "Jane": 3016,
      "Michael": 3017,
      "claimed": 3018,
      "yo": 3019,
      "Erm": 3020,
      "suddenly": 3021,
      "LI": 3022,
      "ST": 3023,
      "stone": 3024,
      "scared": 3025,
      "Brian": 3026,
      "cro": 3027,
      "Father": 3028,
      "Japan": 3029,
      "AM": 3030,
      "cially": 3031,
      "blocks": 3032,
      "suggest": 3033,
      "Di": 3034,
      "Tex": 3035,
      "blow": 3036,
      "common": 3037,
      "medi": 3038,
      "followed": 3039,
      "ki": 3040,
      "onto": 3041,
      "bling": 3042,
      "sugar": 3043,
      "Red": 3044,
      "viously": 3045,
      "activ": 3046,
      "Captain": 3047,
      "ours": 3048,
      "COU": 3049,
      "solute": 3050,
      "Aust": 3051,
      "lam": 3052,
      "tian": 3053,
      "dogg": 3054,
      "lots": 3055,
      "sense": 3056,
      "including": 3057,
      "lovely": 3058,
      "service": 3059,
      "character": 3060,
      "major": 3061,
      "shar": 3062,
      "Pl": 3063,
      "rang": 3064,
      "level": 3065,
      "kn": 3066,
      "Ad": 3067,
      "thro": 3068,
      "reli": 3069,
      "spell": 3070,
      "priv": 3071,
      "circle": 3072,
      "recogn": 3073,
      "scream": 3074,
      "EXP": 3075,
      "Du": 3076,
      "det": 3077,
      "force": 3078,
      "loy": 3079,
      "lymp": 3080,
      "mission": 3081,
      "Su": 3082,
      "educ": 3083,
      "thanks": 3084,
      "beginning": 3085,
      "busy": 3086,
      "dino": 3087,
      "riage": 3088,
      "50": 3089,
      "reen": 3090,
      "apart": 3091,
      "nia": 3092,
      "bin": 3093,
      "sco": 3094,
      "America": 3095,
      "SE": 3096,
      "bank": 3097,
      "lying": 3098,
      "ico": 3099,
      "?”": 3100,
      "sta": 3101,
      "grad": 3102,
      "discus": 3103,
      "SIS2": 3104,
      "Park": 3105,
      "neck": 3106,
      "Satur": 3107,
      "invol": 3108,
      "seeing": 3109,
      "Republ": 3110,
      "ising": 3111,
      "study": 3112,
      "Olymp": 3113,
      "zing": 3114,
      "hid": 3115,
      "ears": 3116,
      "ffer": 3117,
      "sey": 3118,
      "ifor": 3119,
      "race": 3120,
      "crit": 3121,
      "placed": 3122,
      "tiny": 3123,
      "future": 3124,
      "Fraser": 3125,
      "corner": 3126,
      "command": 3127,
      "names": 3128,
      "Queen": 3129,
      "Ox": 3130,
      "offici": 3131,
      "finger": 3132,
      "fir": 3133,
      "repe": 3134,
      "ots": 3135,
      "problems": 3136,
      "CE": 3137,
      "created": 3138,
      "local": 3139,
      "natur": 3140,
      "ping": 3141,
      "dinosa": 3142,
      "Little": 3143,
      "Mus": 3144,
      "ria": 3145,
      "ender": 3146,
      "breakfast": 3147,
      "allowed": 3148,
      "lia": 3149,
      "ird": 3150,
      "ague": 3151,
      "Jer": 3152,
      "rush": 3153,
      "ston": 3154,
      "flu": 3155,
      "ummy": 3156,
      "leaving": 3157,
      "puzzle": 3158,
      "Jim": 3159,
      "spoke": 3160,
      "charge": 3161,
      "RIC": 3162,
      "Stop": 3163,
      "Would": 3164,
      "west": 3165,
      "legs": 3166,
      "plastic": 3167,
      "hate": 3168,
      "objects": 3169,
      "ses": 3170,
      "vot": 3171,
      "mention": 3172,
      "accept": 3173,
      "tic": 3174,
      "itted": 3175,
      "turns": 3176,
      "soft": 3177,
      "bottle": 3178,
      "Was": 3179,
      "School": 3180,
      "ja": 3181,
      "hood": 3182,
      "Saturday": 3183,
      "peace": 3184,
      "gri": 3185,
      "animal": 3186,
      "gin": 3187,
      "lf": 3188,
      "example": 3189,
      "court": 3190,
      "rab": 3191,
      "delight": 3192,
      "bridge": 3193,
      "replied": 3194,
      "Italy": 3195,
      "ause": 3196,
      "temp": 3197,
      "century": 3198,
      "watching": 3199,
      "sticks": 3200,
      "coll": 3201,
      "tains": 3202,
      "nes": 3203,
      "sixty": 3204,
      "writer": 3205,
      "tel": 3206,
      "final": 3207,
      "Really": 3208,
      "capital": 3209,
      "]!": 3210,
      "gig": 3211,
      "ifornia": 3212,
      "asking": 3213,
      "chocol": 3214,
      "region": 3215,
      "Eli": 3216,
      "tig": 3217,
      "bottom": 3218,
      "Black": 3219,
      "itions": 3220,
      "lla": 3221,
      "decl": 3222,
      "zed": 3223,
      "cies": 3224,
      "0s": 3225,
      "DO": 3226,
      "Sam": 3227,
      "THI": 3228,
      "anx": 3229,
      "AB": 3230,
      "games": 3231,
      "State": 3232,
      "municipality": 3233,
      "Ko": 3234,
      "Tony": 3235,
      "butterfly": 3236,
      "pup": 3237,
      "Gree": 3238,
      "Ver": 3239,
      "farm": 3240,
      "feed": 3241,
      "tract": 3242,
      "carried": 3243,
      "population": 3244,
      "Grand": 3245,
      "knock": 3246,
      "iers": 3247,
      "suffer": 3248,
      "Ursula": 3249,
      "assa": 3250,
      "background": 3251,
      "further": 3252,
      "cough": 3253,
      "tall": 3254,
      "itself": 3255,
      "stuck": 3256,
      "Texas": 3257,
      "pment": 3258,
      "photo": 3259,
      "Cour": 3260,
      "non": 3261,
      "bigger": 3262,
      "Uncle": 3263,
      "However": 3264,
      "spoon": 3265,
      "questions": 3266,
      "birds": 3267,
      "Minister": 3268,
      "California": 3269,
      "BR": 3270,
      "wow": 3271,
      "aft": 3272,
      "Alex": 3273,
      "Visit": 3274,
      "Lady": 3275,
      "nal": 3276,
      "alive": 3277,
      "drop": 3278,
      "helped": 3279,
      "ization": 3280,
      "Mad": 3281,
      "ek": 3282,
      "kitty": 3283,
      "washer": 3284,
      "sky": 3285,
      "bi": 3286,
      "tries": 3287,
      "FA": 3288,
      "bought": 3289,
      "ency": 3290,
      "Champions": 3291,
      "Ze": 3292,
      "bun": 3293,
      "phi": 3294,
      "TV": 3295,
      "somewhere": 3296,
      "pron": 3297,
      "promise": 3298,
      "player": 3299,
      "ime": 3300,
      "lon": 3301,
      "nest": 3302,
      "engine": 3303,
      "cru": 3304,
      "thus": 3305,
      "entire": 3306,
      "ode": 3307,
      "leaves": 3308,
      "Russian": 3309,
      "ka": 3310,
      "gives": 3311,
      "India": 3312,
      "mix": 3313,
      "GH": 3314,
      "crow": 3315,
      "itary": 3316,
      "ils": 3317,
      "parts": 3318,
      "Crom": 3319,
      "gle": 3320,
      "vince": 3321,
      "shows": 3322,
      "hall": 3323,
      "nearly": 3324,
      "beach": 3325,
      "tie": 3326,
      "walked": 3327,
      "eggs": 3328,
      "Henry": 3329,
      "chocolate": 3330,
      "Bet": 3331,
      "kets": 3332,
      "magnets": 3333,
      "stars": 3334,
      "plic": 3335,
      "chicken": 3336,
      "tar": 3337,
      "ext": 3338,
      "experi": 3339,
      "plays": 3340,
      "proud": 3341,
      "control": 3342,
      "studio": 3343,
      "Nothing": 3344,
      "trick": 3345,
      "ount": 3346,
      "sevent": 3347,
      "closed": 3348,
      "James": 3349,
      "weren": 3350,
      "len": 3351,
      "toward": 3352,
      "yyy": 3353,
      "duck": 3354,
      "liament": 3355,
      "political": 3356,
      "pend": 3357,
      "aste": 3358,
      "utch": 3359,
      "miles": 3360,
      "cts": 3361,
      "cia": 3362,
      "speaking": 3363,
      "ado": 3364,
      "shut": 3365,
      "grass": 3366,
      "cience": 3367,
      "aid": 3368,
      "ache": 3369,
      "learned": 3370,
      "Pap": 3371,
      "wake": 3372,
      "dropped": 3373,
      "bound": 3374,
      "balls": 3375,
      "Our": 3376,
      "bon": 3377,
      "mond": 3378,
      "Gover": 3379,
      "interesting": 3380,
      "film": 3381,
      "Mag": 3382,
      "apo": 3383,
      "information": 3384,
      "gles": 3385,
      "Ann": 3386,
      "joined": 3387,
      "accident": 3388,
      "100": 3389,
      "bers": 3390,
      "dry": 3391,
      "volution": 3392,
      "HO": 3393,
      "forth": 3394,
      "White": 3395,
      "viol": 3396,
      "Florence": 3397,
      "due": 3398,
      "feat": 3399,
      "ager": 3400,
      "shouldn": 3401,
      "uation": 3402,
      "necess": 3403,
      "Cla": 3404,
      "ET": 3405,
      "cious": 3406,
      "anti": 3407,
      "attention": 3408,
      "ded": 3409,
      "straw": 3410,
      "paid": 3411,
      "Ham": 3412,
      "dar": 3413,
      "flat": 3414,
      "basket": 3415,
      "fright": 3416,
      "stage": 3417,
      "ANN": 3418,
      "Span": 3419,
      "kne": 3420,
      "walking": 3421,
      "memor": 3422,
      "ura": 3423,
      "Cent": 3424,
      "conne": 3425,
      "spok": 3426,
      "descri": 3427,
      "leader": 3428,
      "none": 3429,
      "rose": 3430,
      "ami": 3431,
      "raft": 3432,
      "hurry": 3433,
      "popular": 3434,
      "period": 3435,
      "40": 3436,
      "SS": 3437,
      "ault": 3438,
      "Friday": 3439,
      "Bill": 3440,
      "NG": 3441,
      "gro": 3442,
      "antly": 3443,
      "owl": 3444,
      "lip": 3445,
      "hero": 3446,
      "extra": 3447,
      "type": 3448,
      "affe": 3449,
      "block": 3450,
      "incre": 3451,
      "GMA": 3452,
      "angry": 3453,
      "election": 3454,
      "flew": 3455,
      "mocr": 3456,
      "showed": 3457,
      "falls": 3458,
      "Jes": 3459,
      "bill": 3460,
      "ev": 3461,
      "Council": 3462,
      "sleeping": 3463,
      "slice": 3464,
      "ida": 3465,
      "express": 3466,
      "tempt": 3467,
      ",’": 3468,
      "esta": 3469,
      "date": 3470,
      "constru": 3471,
      "turning": 3472,
      "Cup": 3473,
      "High": 3474,
      "Pat": 3475,
      "directed": 3476,
      "difficult": 3477,
      "Eff": 3478,
      "yle": 3479,
      "\")": 3480,
      "uty": 3481,
      "ably": 3482,
      "dogs": 3483,
      "subject": 3484,
      "Law": 3485,
      "earli": 3486,
      "slowly": 3487,
      "AK": 3488,
      "Bur": 3489,
      "East": 3490,
      "meat": 3491,
      "trad": 3492,
      "cous": 3493,
      "lim": 3494,
      "note": 3495,
      "continued": 3496,
      "Mama": 3497,
      "tour": 3498,
      "tha": 3499,
      "laughed": 3500,
      "finally": 3501,
      "cuse": 3502,
      "Only": 3503,
      "Sum": 3504,
      "fresh": 3505,
      "burg": 3506,
      "Hall": 3507,
      "battle": 3508,
      "leep": 3509,
      "solutely": 3510,
      "Effie": 3511,
      "pun": 3512,
      "pray": 3513,
      "Ram": 3514,
      "sion": 3515,
      "tower": 3516,
      "coco": 3517,
      "guard": 3518,
      "espe": 3519,
      "crack": 3520,
      "ville": 3521,
      "surprise": 3522,
      "motion": 3523,
      "Sal": 3524,
      "iron": 3525,
      "tech": 3526,
      "include": 3527,
      "spent": 3528,
      "Robert": 3529,
      "decis": 3530,
      "excuse": 3531,
      "ium": 3532,
      "houses": 3533,
      "tap": 3534,
      "countries": 3535,
      "effect": 3536,
      "European": 3537,
      "whispered": 3538,
      "Sure": 3539,
      "cos": 3540,
      "EW": 3541,
      "chuck": 3542,
      "needed": 3543,
      "elect": 3544,
      "Han": 3545,
      "cape": 3546,
      "2018": 3547,
      "Ph": 3548,
      "likely": 3549,
      "Does": 3550,
      "expected": 3551,
      "curity": 3552,
      "pitched": 3553,
      "Sch": 3554,
      "lines": 3555,
      "worse": 3556,
      "professional": 3557,
      "Cromer": 3558,
      "alley": 3559,
      "raised": 3560,
      "erson": 3561,
      "talked": 3562,
      "Hung": 3563,
      "Lot": 3564,
      "Med": 3565,
      "wich": 3566,
      "rect": 3567,
      "liver": 3568,
      "tiger": 3569,
      "dressed": 3570,
      "GO": 3571,
      "bite": 3572,
      "ecut": 3573,
      "sor": 3574,
      "added": 3575,
      "western": 3576,
      "uncle": 3577,
      "ashed": 3578,
      "vour": 3579,
      "share": 3580,
      "ram": 3581,
      "ified": 3582,
      "terrible": 3583,
      "vidence": 3584,
      "Monday": 3585,
      "Give": 3586,
      "ergy": 3587,
      "rious": 3588,
      "ninety": 3589,
      "Ra": 3590,
      ".’": 3591,
      "tu": 3592,
      "abl": 3593,
      "ower": 3594,
      "stories": 3595,
      "telephone": 3596,
      "River": 3597,
      "fed": 3598,
      "Street": 3599,
      "stayed": 3600,
      "ALL": 3601,
      "offered": 3602,
      "famili": 3603,
      "pleasure": 3604,
      "League": 3605,
      "elephant": 3606,
      "SI": 3607,
      "especially": 3608,
      "nope": 3609,
      "enemy": 3610,
      "During": 3611,
      "[?": 3612,
      "lab": 3613,
      "Dolly": 3614,
      "History": 3615,
      "Mal": 3616,
      "fighting": 3617,
      "Frank": 3618,
      "pair": 3619,
      "Mex": 3620,
      "Nesta": 3621,
      "anor": 3622,
      "weap": 3623,
      "spot": 3624,
      "Bu": 3625,
      "Pal": 3626,
      "eld": 3627,
      "thinks": 3628,
      "begin": 3629,
      "simply": 3630,
      "favorite": 3631,
      "spoken": 3632,
      "(\"": 3633,
      "adv": 3634,
      "'?": 3635,
      "Mil": 3636,
      "Dis": 3637,
      "ums": 3638,
      "ome": 3639,
      "rate": 3640,
      "likes": 3641,
      "usual": 3642,
      "destroy": 3643,
      "Bob": 3644,
      "indust": 3645,
      "Charles": 3646,
      "General": 3647,
      "itive": 3648,
      "spring": 3649,
      "airplane": 3650,
      "process": 3651,
      "famous": 3652,
      "Kingdom": 3653,
      "brave": 3654,
      "Bun": 3655,
      "Da": 3656,
      "ray": 3657,
      "health": 3658,
      "welcome": 3659,
      "various": 3660,
      "uel": 3661,
      "winter": 3662,
      "chim": 3663,
      "singer": 3664,
      "Fin": 3665,
      "wed": 3666,
      "metal": 3667,
      "caused": 3668,
      "address": 3669,
      "twel": 3670,
      "thr": 3671,
      "immedi": 3672,
      "Court": 3673,
      "hide": 3674,
      "About": 3675,
      "AU": 3676,
      "jam": 3677,
      "sla": 3678,
      "gion": 3679,
      "ught": 3680,
      "ids": 3681,
      "stor": 3682,
      "serious": 3683,
      "mming": 3684,
      "natural": 3685,
      "pat": 3686,
      "irty": 3687,
      "uhuh": 3688,
      "Eleanor": 3689,
      "Mor": 3690,
      "cab": 3691,
      "establ": 3692,
      "sings": 3693,
      "role": 3694,
      "chi": 3695,
      "comput": 3696,
      "Which": 3697,
      "prep": 3698,
      "ko": 3699,
      "sme": 3700,
      "2014": 3701,
      "Brown": 3702,
      "Des": 3703,
      "convers": 3704,
      "Tri": 3705,
      "upstairs": 3706,
      "cute": 3707,
      "glo": 3708,
      "relations": 3709,
      "graphy": 3710,
      "Louis": 3711,
      "Mel": 3712,
      "lord": 3713,
      "razy": 3714,
      "Smith": 3715,
      "Rod": 3716,
      "gum": 3717,
      "Listen": 3718,
      "Whi": 3719,
      "mouse": 3720,
      "slight": 3721,
      "breath": 3722,
      "title": 3723,
      "officer": 3724,
      "threat": 3725,
      "2012": 3726,
      "fied": 3727,
      "pig": 3728,
      "vey": 3729,
      "Eliza": 3730,
      "ration": 3731,
      "asing": 3732,
      "social": 3733,
      "comfor": 3734,
      "bran": 3735,
      "bud": 3736,
      "teeth": 3737,
      "whining": 3738,
      "spirit": 3739,
      "cul": 3740,
      "ni": 3741,
      "load": 3742,
      "berries": 3743,
      "fat": 3744,
      "soldiers": 3745,
      "path": 3746,
      "defin": 3747,
      "exist": 3748,
      "prove": 3749,
      "falling": 3750,
      "THAT": 3751,
      "dinosaur": 3752,
      "Dutch": 3753,
      "mass": 3754,
      "founded": 3755,
      "personal": 3756,
      "pond": 3757,
      "pool": 3758,
      "2011": 3759,
      "driving": 3760,
      "fingers": 3761,
      "fru": 3762,
      "separ": 3763,
      "2013": 3764,
      "Joe": 3765,
      "CHAP": 3766,
      "Washing": 3767,
      "east": 3768,
      "term": 3769,
      "button": 3770,
      "quietly": 3771,
      "oth": 3772,
      "beth": 3773,
      "rights": 3774,
      "Bel": 3775,
      "wers": 3776,
      "although": 3777,
      "Vi": 3778,
      "gate": 3779,
      "nie": 3780,
      "direct": 3781,
      "CHAPTER": 3782,
      "Act": 3783,
      "Gold": 3784,
      "wit": 3785,
      "lift": 3786,
      "spend": 3787,
      "runs": 3788,
      "Day": 3789,
      "Fer": 3790,
      "completely": 3791,
      "continues": 3792,
      "Could": 3793,
      "drew": 3794,
      "island": 3795,
      "lled": 3796,
      "speed": 3797,
      "dollars": 3798,
      "lawyer": 3799,
      "satis": 3800,
      "throat": 3801,
      "Washington": 3802,
      "laid": 3803,
      "2023": 3804,
      "Most": 3805,
      "Paris": 3806,
      "exclaimed": 3807,
      "Never": 3808,
      "mov": 3809,
      "eak": 3810,
      "respect": 3811,
      "Isra": 3812,
      "missed": 3813,
      "Care": 3814,
      "Res": 3815,
      "entered": 3816,
      "epis": 3817,
      "rub": 3818,
      "smile": 3819,
      "picked": 3820,
      "gress": 3821,
      "blan": 3822,
      "phys": 3823,
      "published": 3824,
      "Excuse": 3825,
      "!'": 3826,
      "Jose": 3827,
      "Many": 3828,
      "ander": 3829,
      "vestig": 3830,
      "difference": 3831,
      "ural": 3832,
      "fol": 3833,
      "beyond": 3834,
      "director": 3835,
      "viron": 3836,
      "Humph": 3837,
      "mist": 3838,
      "idered": 3839,
      "wet": 3840,
      "lock": 3841,
      "comb": 3842,
      "broad": 3843,
      "Thomas": 3844,
      "Since": 3845,
      "arrest": 3846,
      "rule": 3847,
      "join": 3848,
      "cture": 3849,
      "ashion": 3850,
      "fortun": 3851,
      "castle": 3852,
      "Canada": 3853,
      "gie": 3854,
      "motor": 3855,
      "market": 3856,
      "icked": 3857,
      "HER": 3858,
      "climb": 3859,
      "SO": 3860,
      "wing": 3861,
      "fold": 3862,
      "higher": 3863,
      "Kitty": 3864,
      "dig": 3865,
      "nap": 3866,
      "Australia": 3867,
      "Mart": 3868,
      "ilar": 3869,
      "intro": 3870,
      "ledge": 3871,
      "Fred": 3872,
      "ech": 3873,
      "twelve": 3874,
      "crazy": 3875,
      "taste": 3876,
      "account": 3877,
      "brief": 3878,
      "Ire": 3879,
      "Port": 3880,
      "stream": 3881,
      "eteen": 3882,
      "ordin": 3883,
      "magic": 3884,
      "Cath": 3885,
      "pink": 3886,
      "aff": 3887,
      "Three": 3888,
      "nder": 3889,
      "imp": 3890,
      "Marcia": 3891,
      "occas": 3892,
      "bid": 3893,
      "evidence": 3894,
      "pretend": 3895,
      "listening": 3896,
      "iting": 3897,
      "Their": 3898,
      "audi": 3899,
      "spread": 3900,
      "monkey": 3901,
      "Prince": 3902,
      "announced": 3903,
      "Christian": 3904,
      "involved": 3905,
      "Humphrey": 3906,
      "Braz": 3907,
      "scient": 3908,
      "research": 3909,
      "asleep": 3910,
      "ables": 3911,
      "llen": 3912,
      "pocket": 3913,
      "sposta": 3914,
      "interested": 3915,
      "quarter": 3916,
      "vironment": 3917,
      "Women": 3918,
      "introdu": 3919,
      "Dar": 3920,
      "fashion": 3921,
      "pin": 3922,
      "sail": 3923,
      "taught": 3924,
      "Italian": 3925,
      "firm": 3926,
      "FI": 3927,
      "asure": 3928,
      "cocoon": 3929,
      "()": 3930,
      "cis": 3931,
      "dess": 3932,
      "older": 3933,
      "military": 3934,
      "arrived": 3935,
      "bour": 3936,
      "shop": 3937,
      "excited": 3938,
      "filled": 3939,
      "Sen": 3940,
      "plant": 3941,
      "offer": 3942,
      "Before": 3943,
      "pha": 3944,
      "warn": 3945,
      "manage": 3946,
      "fool": 3947,
      "ference": 3948,
      "ease": 3949,
      "pher": 3950,
      "tears": 3951,
      "county": 3952,
      "protect": 3953,
      "Scott": 3954,
      "Dep": 3955,
      "gall": 3956,
      "below": 3957,
      "happening": 3958,
      "swimming": 3959,
      "responsi": 3960,
      "earlier": 3961,
      "mum": 3962,
      "potato": 3963,
      "delic": 3964,
      "private": 3965,
      "rabbit": 3966,
      "Parliament": 3967,
      "message": 3968,
      "print": 3969,
      "Roy": 3970,
      "gal": 3971,
      "lap": 3972,
      "chest": 3973,
      "cky": 3974,
      "calls": 3975,
      "vote": 3976,
      "sett": 3977,
      "ladies": 3978,
      "regard": 3979,
      "pronounced": 3980,
      "antic": 3981,
      "--\"": 3982,
      "Intern": 3983,
      "sandwich": 3984,
      "tone": 3985,
      "aret": 3986,
      "aud": 3987,
      "deser": 3988,
      "More": 3989,
      "simple": 3990,
      "journey": 3991,
      "coat": 3992,
      "unk": 3993,
      "orders": 3994,
      "gged": 3995,
      "Cong": 3996,
      "Its": 3997,
      "meaning": 3998,
      "grown": 3999,
      "icle": 4000,
      "coach": 4001,
      "tire": 4002,
      "rail": 4003,
      "Church": 4004,
      "considered": 4005,
      "doggie": 4006,
      "yl": 4007,
      "size": 4008,
      "international": 4009,
      "Perhaps": 4010,
      "mountain": 4011,
      "rings": 4012,
      "hasn": 4013,
      "believed": 4014,
      "Ter": 4015,
      "Tim": 4016,
      "pleased": 4017,
      "machine": 4018,
      "movies": 4019,
      "ee": 4020,
      "2010": 4021,
      "starting": 4022,
      "showing": 4023,
      "awful": 4024,
      "woods": 4025,
      "located": 4026,
      "edge": 4027,
      "mail": 4028,
      "iment": 4029,
      "choice": 4030,
      "distance": 4031,
      "temper": 4032,
      "conversation": 4033,
      "Asi": 4034,
      "ano": 4035,
      "honest": 4036,
      "nineteen": 4037,
      "cret": 4038,
      "recorder": 4039,
      "alo": 4040,
      "anywhere": 4041,
      "Donald": 4042,
      "atives": 4043,
      "vert": 4044,
      "faith": 4045,
      "assist": 4046,
      "Eric": 4047,
      "dancing": 4048,
      "education": 4049,
      "**": 4050,
      "drug": 4051,
      "wound": 4052,
      "execut": 4053,
      "bull": 4054,
      "fourth": 4055,
      "lights": 4056,
      "turtle": 4057,
      "Oxford": 4058,
      "sequ": 4059,
      "notice": 4060,
      "Union": 4061,
      "gather": 4062,
      "bury": 4063,
      "nurse": 4064,
      "giggles": 4065,
      "Got": 4066,
      "Pen": 4067,
      "camer": 4068,
      "hill": 4069,
      "flower": 4070,
      "vided": 4071,
      "original": 4072,
      "Sand": 4073,
      "econ": 4074,
      "lips": 4075,
      "lower": 4076,
      "unless": 4077,
      "ption": 4078,
      "settle": 4079,
      "numbers": 4080,
      "ired": 4081,
      "threw": 4082,
      "exper": 4083,
      "pleasant": 4084,
      "knife": 4085,
      "!”": 4086,
      "terms": 4087,
      "whoa": 4088,
      "favour": 4089,
      "talks": 4090,
      "Lat": 4091,
      "Off": 4092,
      "Wed": 4093,
      "phe": 4094,
      "agreed": 4095,
      "soul": 4096,
      "cere": 4097,
      "active": 4098,
      "produced": 4099,
      "Republic": 4100,
      "Spanish": 4101,
      "While": 4102,
      "Old": 4103,
      "een": 4104,
      "Thurs": 4105,
      "afterwards": 4106,
      "whispers": 4107,
      "huge": 4108,
      "GHT": 4109,
      "MAN": 4110,
      "Val": 4111,
      "asons": 4112,
      "ults": 4113,
      "shirt": 4114,
      "construction": 4115,
      "60": 4116,
      "Ce": 4117,
      "Over": 4118,
      "Vo": 4119,
      "intell": 4120,
      "project": 4121,
      "smart": 4122,
      "Super": 4123,
      "Cam": 4124,
      "zoo": 4125,
      "KEN": 4126,
      "fault": 4127,
      "thee": 4128,
      "square": 4129,
      "situation": 4130,
      "pushed": 4131,
      "bang": 4132,
      "ius": 4133,
      "vere": 4134,
      "amount": 4135,
      "missing": 4136,
      "Summer": 4137,
      "nature": 4138,
      "sque": 4139,
      "aine": 4140,
      "spec": 4141,
      "International": 4142,
      "31": 4143,
      "pour": 4144,
      "ously": 4145,
      "rank": 4146,
      "ators": 4147,
      "regular": 4148,
      "Fox": 4149,
      "WH": 4150,
      "stat": 4151,
      "ability": 4152,
      "training": 4153,
      "similar": 4154,
      "Air": 4155,
      "Aye": 4156,
      "Mid": 4157,
      "TI": 4158,
      "stren": 4159,
      "liber": 4160,
      "enty": 4161,
      "extre": 4162,
      "flying": 4163,
      "appointed": 4164,
      "yard": 4165,
      "seventy": 4166,
      "Gar": 4167,
      "bis": 4168,
      "cean": 4169,
      "tray": 4170,
      "Chin": 4171,
      "gentleman": 4172,
      "coughs": 4173,
      "Elizabeth": 4174,
      "Lab": 4175,
      "Mi": 4176,
      "award": 4177,
      "gif": 4178,
      "rocket": 4179,
      "opport": 4180,
      "Olympics": 4181,
      "Papa": 4182,
      "Colle": 4183,
      "walks": 4184,
      "largest": 4185,
      "Mu": 4186,
      "Rome": 4187,
      "wearing": 4188,
      "nesday": 4189,
      "Ta": 4190,
      "manner": 4191,
      "colors": 4192,
      "watched": 4193,
      "quired": 4194,
      "Jean": 4195,
      "community": 4196,
      "Dist": 4197,
      "Master": 4198,
      "brain": 4199,
      "ns": 4200,
      "hadn": 4201,
      "Rose": 4202,
      "ski": 4203,
      "imagine": 4204,
      "Mike": 4205,
      "Na": 4206,
      "iff": 4207,
      "Democr": 4208,
      "Wood": 4209,
      "immediately": 4210,
      "dread": 4211,
      "zen": 4212,
      "bless": 4213,
      "fail": 4214,
      "correct": 4215,
      "Thursday": 4216,
      "(;": 4217,
      "aven": 4218,
      "bility": 4219,
      "eds": 4220,
      "psy": 4221,
      "movement": 4222,
      "opportun": 4223,
      "Massa": 4224,
      "rie": 4225,
      "tained": 4226,
      "college": 4227,
      "Aldred": 4228,
      "AC": 4229,
      "Pet": 4230,
      "reys": 4231,
      "moder": 4232,
      "cles": 4233,
      "mistake": 4234,
      "pressed": 4235,
      "Russia": 4236,
      "Big": 4237,
      "Out": 4238,
      "investig": 4239,
      "reign": 4240,
      "nods": 4241,
      "mont": 4242,
      "Wil": 4243,
      "uset": 4244,
      "skin": 4245,
      "neither": 4246,
      "discovered": 4247,
      "songs": 4248,
      "uesday": 4249,
      "swim": 4250,
      "lucky": 4251,
      "streng": 4252,
      "dey": 4253,
      "medic": 4254,
      "Massach": 4255,
      "Bas": 4256,
      "picnic": 4257,
      "chimney": 4258,
      "Hur": 4259,
      "therefore": 4260,
      "ession": 4261,
      "guest": 4262,
      "Love": 4263,
      "Brad": 4264,
      "Jesus": 4265,
      "cousin": 4266,
      "usetts": 4267,
      "Massachusetts": 4268,
      "vious": 4269,
      "tax": 4270,
      "190": 4271,
      "protest": 4272,
      "closer": 4273,
      "beside": 4274,
      "radio": 4275,
      "Egy": 4276,
      "nuts": 4277,
      "keeping": 4278,
      "sociation": 4279,
      "Fl": 4280,
      "Mur": 4281,
      "Tuesday": 4282,
      "Um": 4283,
      "total": 4284,
      "stock": 4285,
      "ANT": 4286,
      "Camp": 4287,
      "Green": 4288,
      "Other": 4289,
      "Sus": 4290,
      "oon": 4291,
      "iti": 4292,
      "roof": 4293,
      "ify": 4294,
      "commit": 4295,
      "drinking": 4296,
      "sharp": 4297,
      "Say": 4298,
      "bout": 4299,
      "cries": 4300,
      "ost": 4301,
      "tells": 4302,
      "Wednesday": 4303,
      "Sing": 4304,
      "Sovi": 4305,
      "brush": 4306,
      "minist": 4307,
      "studied": 4308,
      "Secret": 4309,
      "surprised": 4310,
      "cherry": 4311,
      "decision": 4312,
      "Shi": 4313,
      "recent": 4314,
      "phy": 4315,
      "sentence": 4316,
      "honor": 4317,
      "necessary": 4318,
      "Ken": 4319,
      "tong": 4320,
      "verse": 4321,
      "courage": 4322,
      "fruit": 4323,
      "cred": 4324,
      "preci": 4325,
      "languages": 4326,
      "particularly": 4327,
      "dirty": 4328,
      "willing": 4329,
      "itely": 4330,
      "species": 4331,
      "dangerous": 4332,
      "FOR": 4333,
      "Ly": 4334,
      "cit": 4335,
      "sch": 4336,
      "ini": 4337,
      "Molly": 4338,
      "icip": 4339,
      "symp": 4340,
      "brothers": 4341,
      "length": 4342,
      "tes": 4343,
      "ari": 4344,
      "independ": 4345,
      "couch": 4346,
      "oups": 4347,
      "section": 4348,
      "cele": 4349,
      "debut": 4350,
      "heads": 4351,
      "Army": 4352,
      "steps": 4353,
      "neat": 4354,
      "arts": 4355,
      "hardly": 4356,
      "Jeffreys": 4357,
      "experience": 4358,
      "PE": 4359,
      "gods": 4360,
      "lif": 4361,
      "eather": 4362,
      "calm": 4363,
      "twice": 4364,
      "bre": 4365,
      "aled": 4366,
      "female": 4367,
      "artist": 4368,
      "Chief": 4369,
      "candy": 4370,
      "Met": 4371,
      "soup": 4372,
      "itzer": 4373,
      "condu": 4374,
      "elected": 4375,
      "Fire": 4376,
      "loss": 4377,
      "saved": 4378,
      "poss": 4379,
      "worried": 4380,
      "obviously": 4381,
      "Spain": 4382,
      "influ": 4383,
      "lion": 4384,
      "absolutely": 4385,
      "cheer": 4386,
      "promised": 4387,
      "comfortable": 4388,
      "celebr": 4389,
      "requ": 4390,
      "hell": 4391,
      "stro": 4392,
      "usion": 4393,
      "sighs": 4394,
      "Aunt": 4395,
      "Net": 4396,
      "Sim": 4397,
      "weight": 4398,
      "trave": 4399,
      "purpose": 4400,
      "Earth": 4401,
      "vy": 4402,
      "nother": 4403,
      "weak": 4404,
      "mpion": 4405,
      "ensus": 4406,
      "occur": 4407,
      "mat": 4408,
      "plenty": 4409,
      "ensive": 4410,
      "empty": 4411,
      "VER": 4412,
      "fal": 4413,
      "dolly": 4414,
      "weather": 4415,
      "uni": 4416,
      "FC": 4417,
      "mater": 4418,
      "san": 4419,
      "isy": 4420,
      "doin": 4421,
      "areas": 4422,
      "Star": 4423,
      "untie": 4424,
      "Duke": 4425,
      "Award": 4426,
      "escape": 4427,
      "African": 4428,
      "iles": 4429,
      "monster": 4430,
      "aware": 4431,
      "cellent": 4432,
      "Ba": 4433,
      "Life": 4434,
      "bod": 4435,
      "lic": 4436,
      "dep": 4437,
      "fancy": 4438,
      "computer": 4439,
      "eager": 4440,
      "speech": 4441,
      "clearly": 4442,
      "Claus": 4443,
      "Soviet": 4444,
      "oured": 4445,
      "grave": 4446,
      "trip": 4447,
      "holiday": 4448,
      ".,": 4449,
      "Gi": 4450,
      "nation": 4451,
      "sam": 4452,
      "ita": 4453,
      "meal": 4454,
      "tight": 4455,
      "groups": 4456,
      "Robin": 4457,
      "Arab": 4458,
      "Once": 4459,
      "Saint": 4460,
      "TE": 4461,
      "tv": 4462,
      "duty": 4463,
      "stret": 4464,
      "aling": 4465,
      "fifteen": 4466,
      "fixed": 4467,
      "Keep": 4468,
      "current": 4469,
      "sour": 4470,
      "beauty": 4471,
      "Francis": 4472,
      "occup": 4473,
      "MY": 4474,
      "Pan": 4475,
      "Sta": 4476,
      "deb": 4477,
      "paint": 4478,
      "struck": 4479,
      "pulled": 4480,
      "Hugo": 4481,
      "Joseph": 4482,
      "zo": 4483,
      "arian": 4484,
      "security": 4485,
      "hips": 4486,
      "dem": 4487,
      "impossible": 4488,
      "bathroom": 4489,
      "Tre": 4490,
      "double": 4491,
      "indi": 4492,
      "indic": 4493,
      "affair": 4494,
      "continue": 4495,
      "logical": 4496,
      "ites": 4497,
      "ira": 4498,
      "judge": 4499,
      "Bru": 4500,
      "deter": 4501,
      "wra": 4502,
      "atta": 4503,
      "aper": 4504,
      "shadow": 4505,
      "Percy": 4506,
      "darling": 4507,
      "ís": 4508,
      "acqu": 4509,
      "bowl": 4510,
      "Those": 4511,
      "Cr": 4512,
      "oil": 4513,
      "scene": 4514,
      "detail": 4515,
      "aign": 4516,
      "ona": 4517,
      "according": 4518,
      "silence": 4519,
      "possibly": 4520,
      "circus": 4521,
      "explo": 4522,
      "issue": 4523,
      "text": 4524,
      "comed": 4525,
      "asty": 4526,
      "Mabel": 4527,
      "Second": 4528,
      "easily": 4529,
      "Happ": 4530,
      "LY": 4531,
      "Vic": 4532,
      "knowledge": 4533,
      "driver": 4534,
      "princess": 4535,
      "episode": 4536,
      "UE": 4537,
      "ota": 4538,
      "percent": 4539,
      "neighbor": 4540,
      "ulti": 4541,
      "ishment": 4542,
      "Doctor": 4543,
      "channel": 4544,
      "SC": 4545,
      "craft": 4546,
      "relie": 4547,
      "bother": 4548,
      "inda": 4549,
      "rising": 4550,
      "EX1": 4551,
      "perfectly": 4552,
      "blanket": 4553,
      "Cle": 4554,
      "Call": 4555,
      "eh": 4556,
      "ination": 4557,
      "resol": 4558,
      "cop": 4559,
      "shown": 4560,
      "distribut": 4561,
      "Cathol": 4562,
      "ras": 4563,
      "keys": 4564,
      "scr": 4565,
      "Angela": 4566,
      "Tal": 4567,
      "Up": 4568,
      "bits": 4569,
      "lets": 4570,
      "council": 4571,
      "2005": 4572,
      "2008": 4573,
      "Something": 4574,
      "leading": 4575,
      "loudly": 4576,
      "camera": 4577,
      "decide": 4578,
      "patient": 4579,
      "fought": 4580,
      "liter": 4581,
      "vous": 4582,
      "attempt": 4583,
      "rial": 4584,
      "bomb": 4585,
      "Maria": 4586,
      "crime": 4587,
      "III": 4588,
      "gentlemen": 4589,
      "scary": 4590,
      "Ca": 4591,
      "Four": 4592,
      "jest": 4593,
      "agged": 4594,
      "tru": 4595,
      "students": 4596,
      "itude": 4597,
      "aring": 4598,
      "cely": 4599,
      "willn": 4600,
      "MP": 4601,
      "advent": 4602,
      "China": 4603,
      "avail": 4604,
      "2007": 4605,
      "declared": 4606,
      "frightened": 4607,
      "Ru": 4608,
      "sac": 4609,
      "demand": 4610,
      "eleven": 4611,
      "trem": 4612,
      "OUT": 4613,
      "itzerland": 4614,
      "science": 4615,
      "2009": 4616,
      "Major": 4617,
      "anxious": 4618,
      "Bye": 4619,
      "Nic": 4620,
      "Still": 4621,
      "uten": 4622,
      "greatest": 4623,
      "Switzerland": 4624,
      "Play": 4625,
      "ners": 4626,
      "coast": 4627,
      "marked": 4628,
      "purple": 4629,
      "jumped": 4630,
      "Scotland": 4631,
      "development": 4632,
      "dishes": 4633,
      "strawberries": 4634,
      "Del": 4635,
      "OUR": 4636,
      "price": 4637,
      "string": 4638,
      "Ray": 4639,
      "dare": 4640,
      "eks": 4641,
      "angers": 4642,
      "chuckles": 4643,
      "Far": 4644,
      "Hy": 4645,
      "Sil": 4646,
      "environment": 4647,
      "crown": 4648,
      "issi": 4649,
      "habit": 4650,
      "libr": 4651,
      "serve": 4652,
      "glasses": 4653,
      "Hor": 4654,
      "fu": 4655,
      "reck": 4656,
      "asy": 4657,
      "Hel": 4658,
      "2006": 4659,
      "erald": 4660,
      "NOW": 4661,
      "AEW": 4662,
      "Emp": 4663,
      "HA": 4664,
      "Hon": 4665,
      "kins": 4666,
      "hotel": 4667,
      "noticed": 4668,
      "wooden": 4669,
      "Everything": 4670,
      "Championship": 4671,
      "prepared": 4672,
      "?'": 4673,
      "ero": 4674,
      "avo": 4675,
      "owned": 4676,
      "version": 4677,
      "employ": 4678,
      "Hold": 4679,
      "NE": 4680,
      "Inter": 4681,
      "rent": 4682,
      "pointing": 4683,
      "2004": 4684,
      "queen": 4685,
      "competed": 4686,
      "official": 4687,
      "KE": 4688,
      "bare": 4689,
      "cult": 4690,
      "rise": 4691,
      "Isn": 4692,
      "Japanese": 4693,
      "mere": 4694,
      "doors": 4695,
      "raise": 4696,
      "opin": 4697,
      "marry": 4698,
      "champions": 4699,
      "Early": 4700,
      "Hill": 4701,
      "Iran": 4702,
      "Sto": 4703,
      "Gor": 4704,
      "rot": 4705,
      "waited": 4706,
      "marriage": 4707,
      "giant": 4708,
      "Island": 4709,
      "priest": 4710,
      "fallen": 4711,
      "competition": 4712,
      "Den": 4713,
      "Vir": 4714,
      "managed": 4715,
      "berry": 4716,
      "Islam": 4717,
      "contact": 4718,
      "Mont": 4719,
      "Won": 4720,
      "ez": 4721,
      "ador": 4722,
      "trade": 4723,
      "drawing": 4724,
      "hanging": 4725,
      "storm": 4726,
      "80": 4727,
      "boots": 4728,
      "center": 4729,
      "cups": 4730,
      "Sometimes": 4731,
      "Guy": 4732,
      "Mill": 4733,
      "sides": 4734,
      "energy": 4735,
      "itation": 4736,
      "berg": 4737,
      "Stu": 4738,
      "Boy": 4739,
      "Zara": 4740,
      "inno": 4741,
      "result": 4742,
      "bug": 4743,
      "iana": 4744,
      "handle": 4745,
      "2003": 4746,
      "rolled": 4747,
      "icycle": 4748,
      "Chinese": 4749,
      "DE": 4750,
      "Gro": 4751,
      "Jud": 4752,
      "rice": 4753,
      "ani": 4754,
      "hoe": 4755,
      "tran": 4756,
      "disease": 4757,
      "changes": 4758,
      "swing": 4759,
      "Walter": 4760,
      "strength": 4761,
      "Minn": 4762,
      "bul": 4763,
      "union": 4764,
      "newsp": 4765,
      "begins": 4766,
      "captain": 4767,
      "burst": 4768,
      "According": 4769,
      "remind": 4770,
      "secon": 4771,
      "grace": 4772,
      "iction": 4773,
      "carefully": 4774,
      "stitution": 4775,
      "remained": 4776,
      "Gerald": 4777,
      "Ty": 4778,
      "mac": 4779,
      "sword": 4780,
      "normal": 4781,
      "views": 4782,
      "Mild": 4783,
      "cant": 4784,
      "helping": 4785,
      "centre": 4786,
      "wheels": 4787,
      "IC": 4788,
      "Tod": 4789,
      "fant": 4790,
      "respond": 4791,
      "minister": 4792,
      "nights": 4793,
      "direction": 4794,
      "Prin": 4795,
      "extreme": 4796,
      "wis": 4797,
      "ordered": 4798,
      "Western": 4799,
      "peror": 4800,
      "grab": 4801,
      "ONE": 4802,
      "elephants": 4803,
      "practice": 4804,
      "mentioned": 4805,
      "bump": 4806,
      "aries": 4807,
      "lem": 4808,
      "cancer": 4809,
      "wore": 4810,
      "stomach": 4811,
      "intellig": 4812,
      "determin": 4813,
      "Happy": 4814,
      "Way": 4815,
      "Wow": 4816,
      "enced": 4817,
      "content": 4818,
      "modern": 4819,
      "seconds": 4820,
      "Mildred": 4821,
      "furn": 4822,
      "youth": 4823,
      "ourselves": 4824,
      "Pope": 4825,
      "Ir": 4826,
      "tot": 4827,
      "weird": 4828,
      "shoe": 4829,
      "Edward": 4830,
      "Africa": 4831,
      "Congress": 4832,
      "Jenn": 4833,
      "Town": 4834,
      "fence": 4835,
      "gree": 4836,
      "vac": 4837,
      "idence": 4838,
      "dying": 4839,
      "unders": 4840,
      "Agn": 4841,
      "harm": 4842,
      "jun": 4843,
      "oul": 4844,
      "aland": 4845,
      "saf": 4846,
      "sake": 4847,
      "maid": 4848,
      "const": 4849,
      "2000": 4850,
      "keeps": 4851,
      "opening": 4852,
      "Lee": 4853,
      "jac": 4854,
      "wrest": 4855,
      "Wel": 4856,
      "merry": 4857,
      "painting": 4858,
      "sisters": 4859,
      "opportunity": 4860,
      "Jake": 4861,
      "gir": 4862,
      "pir": 4863,
      "uce": 4864,
      "appreci": 4865,
      "downstairs": 4866,
      "anges": 4867,
      "greater": 4868,
      "pillow": 4869,
      "growing": 4870,
      "Britain": 4871,
      "\"]": 4872,
      "?]": 4873,
      "bone": 4874,
      "forced": 4875,
      "til": 4876,
      "knowing": 4877,
      "acks": 4878,
      "ilda": 4879,
      "spect": 4880,
      "rapid": 4881,
      "90": 4882,
      "Mhm": 4883,
      "PL": 4884,
      "bac": 4885,
      "flight": 4886,
      "rat": 4887,
      "nomin": 4888,
      "terror": 4889,
      "ademy": 4890,
      "cott": 4891,
      "ships": 4892,
      "cruel": 4893,
      "Kent": 4894,
      "aver": 4895,
      "ji": 4896,
      "aces": 4897,
      "somethin": 4898,
      "boss": 4899,
      "serving": 4900,
      "2001": 4901,
      "faces": 4902,
      "JO": 4903,
      "oge": 4904,
      "noble": 4905,
      "usage": 4906,
      "cases": 4907,
      "THIS": 4908,
      "Israel": 4909,
      "settled": 4910,
      "tongue": 4911,
      "Mat": 4912,
      "Ry": 4913,
      "Scro": 4914,
      "bike": 4915,
      "gor": 4916,
      "choose": 4917,
      "Nether": 4918,
      "gious": 4919,
      "UST": 4920,
      "successful": 4921,
      "Flor": 4922,
      "belt": 4923,
      "alle": 4924,
      "plums": 4925,
      "angle": 4926,
      "mud": 4927,
      "grandfather": 4928,
      "crowd": 4929,
      "tho": 4930,
      "melon": 4931,
      "forms": 4932,
      "peas": 4933,
      "ille": 4934,
      "ppi": 4935,
      "smiled": 4936,
      "carrying": 4937,
      "Royal": 4938,
      "Agnes": 4939,
      "35": 4940,
      "Bud": 4941,
      "MAL": 4942,
      "Spe": 4943,
      "blind": 4944,
      "feels": 4945,
      "campaign": 4946,
      "Canadian": 4947,
      "----------------": 4948,
      "memory": 4949,
      "College": 4950,
      "Hal": 4951,
      "ouri": 4952,
      "alpha": 4953,
      "defe": 4954,
      "mostly": 4955,
      "dreams": 4956,
      "soldier": 4957,
      "BO": 4958,
      "Put": 4959,
      "multi": 4960,
      "via": 4961,
      "iny": 4962,
      "plants": 4963,
      "tors": 4964,
      "Becky": 4965,
      "conscious": 4966,
      "papers": 4967,
      "WHAT": 4968,
      "Bal": 4969,
      "Gri": 4970,
      "Nice": 4971,
      "Tor": 4972,
      "kick": 4973,
      "nger": 4974,
      "isted": 4975,
      "kinds": 4976,
      "Max": 4977,
      "golden": 4978,
      "officers": 4979,
      "Greek": 4980,
      "Time": 4981,
      "pitch": 4982,
      "clears": 4983,
      "killer": 4984,
      "Polly": 4985,
      "frogs": 4986,
      "events": 4987,
      "response": 4988,
      "repeated": 4989,
      "Netherlands": 4990,
      "Ron": 4991,
      "Van": 4992,
      "emer": 4993,
      "mam": 4994,
      "rocks": 4995,
      "prevent": 4996,
      "Scrooge": 4997,
      "BC": 4998,
      "nan": 4999,
      "wings": 5000,
      "copy": 5001,
      "plans": 5002,
      "lake": 5003,
      "cloth": 5004,
      "established": 5005,
      "Fine": 5006,
      "Free": 5007,
      "Girl": 5008,
      "Sur": 5009,
      "asha": 5010,
      "proved": 5011,
      "actress": 5012,
      "shape": 5013,
      "smaller": 5014,
      "succeed": 5015,
      "concerned": 5016,
      "tapere": 5017,
      "Mummy": 5018,
      "ws": 5019,
      "ghost": 5020,
      "avar": 5021,
      "shore": 5022,
      "custo": 5023,
      "princi": 5024,
      "Nick": 5025,
      "hoh": 5026,
      "ishing": 5027,
      "central": 5028,
      "approach": 5029,
      "Ireland": 5030,
      "ordinary": 5031,
      "individ": 5032,
      "taperecorder": 5033,
      "thick": 5034,
      "poet": 5035,
      "ilities": 5036,
      "Marie": 5037,
      "babies": 5038,
      "Danie": 5039,
      "journal": 5040,
      "Sea": 5041,
      "cad": 5042,
      "excellent": 5043,
      "rooms": 5044,
      "trial": 5045,
      "matches": 5046,
      "Zealand": 5047,
      "Empire": 5048,
      "Back": 5049,
      "Hol": 5050,
      "anut": 5051,
      "ching": 5052,
      "waste": 5053,
      "histor": 5054,
      "demon": 5055,
      "acting": 5056,
      "windows": 5057,
      "drawn": 5058,
      "Austrian": 5059,
      "gradu": 5060,
      "smell": 5061,
      "Bam": 5062,
      "WAS": 5063,
      "uhoh": 5064,
      "asse": 5065,
      "tered": 5066,
      "oks": 5067,
      "plat": 5068,
      "ffic": 5069,
      "Williams": 5070,
      "ouds": 5071,
      "scri": 5072,
      "stands": 5073,
      "Association": 5074,
      "teams": 5075,
      "Swed": 5076,
      "Prime": 5077,
      "slo": 5078,
      "oranges": 5079,
      "ads": 5080,
      "forman": 5081,
      "joke": 5082,
      "fifth": 5083,
      "powerful": 5084,
      "figures": 5085,
      "rules": 5086,
      "micro": 5087,
      "occasion": 5088,
      "Men": 5089,
      "cise": 5090,
      "gt": 5091,
      "retired": 5092,
      "proceed": 5093,
      "ideas": 5094,
      "voices": 5095,
      "schools": 5096,
      "condition": 5097,
      "Mississi": 5098,
      "Carol": 5099,
      "lu": 5100,
      "ouched": 5101,
      "worst": 5102,
      "complain": 5103,
      "forever": 5104,
      "helmet": 5105,
      "easier": 5106,
      "riding": 5107,
      "walls": 5108,
      "Mississippi": 5109,
      "Sk": 5110,
      "Wall": 5111,
      "eli": 5112,
      "stir": 5113,
      "docum": 5114,
      "forces": 5115,
      "obli": 5116,
      "evil": 5117,
      "lone": 5118,
      "degree": 5119,
      "goodness": 5120,
      "useta": 5121,
      "MO": 5122,
      "younger": 5123,
      "style": 5124,
      "holes": 5125,
      "upset": 5126,
      "travel": 5127,
      "Mexico": 5128,
      "Lau": 5129,
      "RY": 5130,
      "han": 5131,
      "inju": 5132,
      "iding": 5133,
      "flag": 5134,
      "bringing": 5135,
      "signed": 5136,
      "religious": 5137,
      "econom": 5138,
      "safety": 5139,
      "pears": 5140,
      "carriage": 5141,
      "Los": 5142,
      "forgotten": 5143,
      "Dou": 5144,
      "Six": 5145,
      "fare": 5146,
      "loves": 5147,
      "manager": 5148,
      "highest": 5149,
      "arently": 5150,
      "Es": 5151,
      "RA": 5152,
      "Str": 5153,
      "Uk": 5154,
      "cam": 5155,
      "fond": 5156,
      "flies": 5157,
      "sens": 5158,
      "kel": 5159,
      "umber": 5160,
      "Boston": 5161,
      "leaders": 5162,
      "Catholic": 5163,
      "scratch": 5164,
      "45": 5165,
      "Ok": 5166,
      "Pre": 5167,
      "dim": 5168,
      "winning": 5169,
      "attemp": 5170,
      "sele": 5171,
      "lolli": 5172,
      "contract": 5173,
      "Missouri": 5174,
      "capt": 5175,
      "District": 5176,
      "available": 5177,
      "esti": 5178,
      "states": 5179,
      "umps": 5180,
      "ulf": 5181,
      "comfort": 5182,
      "shine": 5183,
      "victim": 5184,
      "Career": 5185,
      "Ban": 5186,
      "bunch": 5187,
      "wished": 5188,
      "dose": 5189,
      "clouds": 5190,
      "finding": 5191,
      "survi": 5192,
      "Prof": 5193,
      "appearance": 5194,
      "Alexander": 5195,
      "Best": 5196,
      "jury": 5197,
      "rant": 5198,
      "ena": 5199,
      "medical": 5200,
      "watermelon": 5201,
      "Charlie": 5202,
      "totally": 5203,
      "km": 5204,
      "oops": 5205,
      "unclear": 5206,
      "Think": 5207,
      "Cooper": 5208,
      "presents": 5209,
      "grandmother": 5210,
      "families": 5211,
      "Secretary": 5212,
      "trou": 5213,
      "feelings": 5214,
      "Earl": 5215,
      "silly": 5216,
      "arrang": 5217,
      "rode": 5218,
      "bolt": 5219,
      "grun": 5220,
      "Stan": 5221,
      "shoulder": 5222,
      "teddy": 5223,
      "society": 5224,
      "Clar": 5225,
      "YE": 5226,
      "barn": 5227,
      "theory": 5228,
      "oking": 5229,
      "wondering": 5230,
      "cookie": 5231,
      "rupt": 5232,
      "cities": 5233,
      "census": 5234,
      "nu": 5235,
      "pages": 5236,
      "site": 5237,
      "gery": 5238,
      "Son": 5239,
      "equi": 5240,
      "ume": 5241,
      "heaven": 5242,
      "companies": 5243,
      "FE": 5244,
      "Sc": 5245,
      "dun": 5246,
      "refle": 5247,
      "meters": 5248,
      "cel": 5249,
      "phen": 5250,
      "policy": 5251,
      "risk": 5252,
      "1995": 5253,
      "related": 5254,
      "salt": 5255,
      "streets": 5256,
      "developed": 5257,
      "voted": 5258,
      "medicine": 5259,
      "becoming": 5260,
      "fork": 5261,
      "ential": 5262,
      "ila": 5263,
      "nah": 5264,
      "avis": 5265,
      "visitor": 5266,
      "Although": 5267,
      "surround": 5268,
      "Laura": 5269,
      "Austria": 5270,
      "Actually": 5271,
      "Brazil": 5272,
      "Another": 5273,
      "Auntie": 5274,
      "Bad": 5275,
      "rend": 5276,
      "magaz": 5277,
      "Bea": 5278,
      "UT": 5279,
      "ocean": 5280,
      "itar": 5281,
      "veget": 5282,
      "ansas": 5283,
      "needta": 5284,
      "screw": 5285,
      "pickle": 5286,
      "reported": 5287,
      "BI": 5288,
      "Dy": 5289,
      "nick": 5290,
      "tood": 5291,
      "ades": 5292,
      "sausage": 5293,
      "somewhat": 5294,
      "olars": 5295,
      "Andrew": 5296,
      "remembered": 5297,
      "nervous": 5298,
      "atory": 5299,
      "Harry": 5300,
      "cabin": 5301,
      "sar": 5302,
      "blast": 5303,
      "Marg": 5304,
      "particip": 5305,
      "finds": 5306,
      "2002": 5307,
      "Province": 5308,
      "guns": 5309,
      "quarters": 5310,
      "smoke": 5311,
      "Democratic": 5312,
      "500": 5313,
      "Dear": 5314,
      "Under": 5315,
      "everywhere": 5316,
      "Johnson": 5317,
      "relationship": 5318,
      "jesty": 5319,
      "Cont": 5320,
      "Next": 5321,
      "WO": 5322,
      "model": 5323,
      "addition": 5324,
      "planet": 5325,
      "planning": 5326,
      "amazing": 5327,
      "ENT": 5328,
      "Martin": 5329,
      "lollipop": 5330,
      "Cast": 5331,
      "Scient": 5332,
      "cards": 5333,
      "imm": 5334,
      "circum": 5335,
      "salad": 5336,
      "suspect": 5337,
      "Scar": 5338,
      "SHE": 5339,
      "omy": 5340,
      "remark": 5341,
      "sche": 5342,
      "posite": 5343,
      "friendly": 5344,
      "snake": 5345,
      "Sou": 5346,
      "narrow": 5347,
      "icles": 5348,
      "peanut": 5349,
      "exer": 5350,
      "foreign": 5351,
      "Record": 5352,
      "crimin": 5353,
      "Pers": 5354,
      "sie": 5355,
      "thur": 5356,
      "chase": 5357,
      "loso": 5358,
      "boats": 5359,
      "zza": 5360,
      "bedroom": 5361,
      "Both": 5362,
      "stitute": 5363,
      "Government": 5364,
      "Cher": 5365,
      "Lie": 5366,
      "rum": 5367,
      "aded": 5368,
      "spill": 5369,
      "goodbye": 5370,
      "cakes": 5371,
      "Whatever": 5372,
      "crash": 5373,
      "1994": 5374,
      "1998": 5375,
      "benef": 5376,
      "bunny": 5377,
      "potatoes": 5378,
      "gift": 5379,
      "Susan": 5380,
      "UP": 5381,
      "release": 5382,
      "iano": 5383,
      "owner": 5384,
      "staying": 5385,
      "1996": 5386,
      "scarcely": 5387,
      "religion": 5388,
      "Fair": 5389,
      "Long": 5390,
      "rout": 5391,
      "els": 5392,
      "failed": 5393,
      "throughout": 5394,
      "desc": 5395,
      "aki": 5396,
      "services": 5397,
      "included": 5398,
      "Merle": 5399,
      "estival": 5400,
      "Has": 5401,
      "Went": 5402,
      "Year": 5403,
      "servant": 5404,
      "production": 5405,
      "GI": 5406,
      "bble": 5407,
      "era": 5408,
      "ening": 5409,
      "aging": 5410,
      "delay": 5411,
      "laught": 5412,
      "1999": 5413,
      "prisoners": 5414,
      "Angeles": 5415,
      "Gl": 5416,
      "mitted": 5417,
      "chant": 5418,
      "pow": 5419,
      "performan": 5420,
      "cloud": 5421,
      "matters": 5422,
      "Governor": 5423,
      "tournam": 5424,
      "boo": 5425,
      "surely": 5426,
      "sports": 5427,
      "Turk": 5428,
      "32": 5429,
      "tles": 5430,
      "Nobody": 5431,
      "tooth": 5432,
      "hearing": 5433,
      "slide": 5434,
      "salami": 5435,
      "Mickey": 5436,
      "strike": 5437,
      "generally": 5438,
      "mixed": 5439,
      "rible": 5440,
      "sorts": 5441,
      "organization": 5442,
      "specific": 5443,
      "Bat": 5444,
      "Huh": 5445,
      "NOT": 5446,
      "horn": 5447,
      "toe": 5448,
      "illa": 5449,
      "concl": 5450,
      "istan": 5451,
      "marks": 5452,
      "medal": 5453,
      "Down": 5454,
      "ava": 5455,
      "traffic": 5456,
      "desk": 5457,
      "mighty": 5458,
      "passing": 5459,
      "UNC": 5460,
      "Juli": 5461,
      "critic": 5462,
      "Virgin": 5463,
      "Bes": 5464,
      "Kar": 5465,
      "faster": 5466,
      "iety": 5467,
      "wagon": 5468,
      "goal": 5469,
      "notes": 5470,
      "woke": 5471,
      "Arthur": 5472,
      "Johnny": 5473,
      "mispronounced": 5474,
      "fortune": 5475,
      "excite": 5476,
      "candid": 5477,
      "\"?": 5478,
      "Pict": 5479,
      "Sa": 5480,
      "bush": 5481,
      "arrange": 5482,
      "het": 5483,
      "heat": 5484,
      "advice": 5485,
      "blame": 5486,
      "izing": 5487,
      "grey": 5488,
      "achie": 5489,
      "penny": 5490,
      "hearts": 5491,
      "cats": 5492,
      "value": 5493,
      "Everyone": 5494,
      "Margaret": 5495,
      "Mavis": 5496,
      "bio": 5497,
      "ox": 5498,
      "lean": 5499,
      "clip": 5500,
      "Bruce": 5501,
      "tough": 5502,
      "hasta": 5503,
      "Child": 5504,
      "interview": 5505,
      "fourteen": 5506,
      "mountains": 5507,
      "shooting": 5508,
      "aur": 5509,
      "tun": 5510,
      "armed": 5511,
      "access": 5512,
      "nail": 5513,
      "smiling": 5514,
      "fairly": 5515,
      "creature": 5516,
      "referring": 5517,
      "opinion": 5518,
      "border": 5519,
      "equ": 5520,
      "los": 5521,
      "tily": 5522,
      "deck": 5523,
      "gling": 5524,
      "preschool": 5525,
      "Alright": 5526,
      "1992": 5527,
      "Academy": 5528,
      "currently": 5529,
      "fuck": 5530,
      "disappeared": 5531,
      "Americ": 5532,
      "188": 5533,
      "Poor": 5534,
      "batter": 5535,
      "eth": 5536,
      "sits": 5537,
      "aron": 5538,
      "league": 5539,
      "chop": 5540,
      "partner": 5541,
      "ucky": 5542,
      "setting": 5543,
      "breaking": 5544,
      "engers": 5545,
      "fields": 5546,
      "confir": 5547,
      "difficul": 5548,
      "Latin": 5549,
      "Yo": 5550,
      "ancient": 5551,
      "veh": 5552,
      "code": 5553,
      "amed": 5554,
      "tip": 5555,
      "somehow": 5556,
      "ressing": 5557,
      "thoughts": 5558,
      "189": 5559,
      "kidding": 5560,
      "reedom": 5561,
      "understood": 5562,
      "Profess": 5563,
      "Bri": 5564,
      "Cause": 5565,
      "GE": 5566,
      "Gra": 5567,
      "dough": 5568,
      "tick": 5569,
      "reme": 5570,
      "ental": 5571,
      "media": 5572,
      "ffici": 5573,
      "gging": 5574,
      "balloon": 5575,
      "Argent": 5576,
      "drops": 5577,
      "barr": 5578,
      "advant": 5579,
      "Labour": 5580,
      "Hea": 5581,
      "Squ": 5582,
      "bat": 5583,
      "pause": 5584,
      "covers": 5585,
      "gency": 5586,
      "planned": 5587,
      "pale": 5588,
      "legal": 5589,
      "besides": 5590,
      "Australian": 5591,
      "weapons": 5592,
      "Bir": 5593,
      "Bren": 5594,
      "Fed": 5595,
      "touched": 5596,
      "althy": 5597,
      "university": 5598,
      "acted": 5599,
      "brings": 5600,
      "Didn": 5601,
      "Philip": 5602,
      "factory": 5603,
      "property": 5604,
      "hiding": 5605,
      "Cur": 5606,
      "Last": 5607,
      "Show": 5608,
      "rick": 5609,
      "witch": 5610,
      "rema": 5611,
      "aside": 5612,
      "rif": 5613,
      "deliver": 5614,
      "ulous": 5615,
      "comment": 5616,
      "Rock": 5617,
      "yelling": 5618,
      "1991": 5619,
      "pulls": 5620,
      "referent": 5621,
      "horsie": 5622,
      "mirror": 5623,
      "industry": 5624,
      "Cy": 5625,
      "Fort": 5626,
      "Rad": 5627,
      "dete": 5628,
      "uk": 5629,
      "uff": 5630,
      "inct": 5631,
      "hadta": 5632,
      "apt": 5633,
      "dies": 5634,
      "pressure": 5635,
      "counter": 5636,
      "picking": 5637,
      "Central": 5638,
      "Jung": 5639,
      "Try": 5640,
      "fen": 5641,
      "feather": 5642,
      "pants": 5643,
      "thod": 5644,
      "request": 5645,
      "selling": 5646,
      "forgive": 5647,
      "....": 5648,
      "rill": 5649,
      "upside": 5650,
      "apples": 5651,
      "ounce": 5652,
      "Anne": 5653,
      "Remember": 5654,
      "Today": 5655,
      "Maine": 5656,
      "Ooh": 5657,
      "ata": 5658,
      "isher": 5659,
      "advert": 5660,
      "opposite": 5661,
      "impress": 5662,
      "brand": 5663,
      "vessel": 5664,
      "eats": 5665,
      "finan": 5666,
      "sons": 5667,
      "Make": 5668,
      "drove": 5669,
      "buildings": 5670,
      "climate": 5671,
      "Tommy": 5672,
      "rushed": 5673,
      "Disney": 5674,
      "arrested": 5675,
      "38": 5676,
      "Billy": 5677,
      "Gers": 5678,
      "Nik": 5679,
      "bones": 5680,
      "nasty": 5681,
      "sink": 5682,
      "worn": 5683,
      "Chan": 5684,
      "silent": 5685,
      "dolls": 5686,
      "weapon": 5687,
      "Five": 5688,
      "nib": 5689,
      "anno": 5690,
      "biggest": 5691,
      "useful": 5692,
      "pregn": 5693,
      "royal": 5694,
      "Club": 5695,
      "37": 5696,
      "Bay": 5697,
      "Win": 5698,
      "Yet": 5699,
      "rare": 5700,
      "ít": 5701,
      "locked": 5702,
      "myster": 5703,
      "focus": 5704,
      "grate": 5705,
      "choo": 5706,
      "writes": 5707,
      "cookies": 5708,
      "evident": 5709,
      "drun": 5710,
      "reve": 5711,
      "astern": 5712,
      "sheep": 5713,
      "quit": 5714,
      "presence": 5715,
      "chain": 5716,
      "speaks": 5717,
      "laws": 5718,
      "��������": 5719,
      "burning": 5720,
      "discuss": 5721,
      "definitely": 5722,
      "witness": 5723,
      "rubber": 5724,
      "folk": 5725,
      "Asian": 5726,
      "Bull": 5727,
      "DI": 5728,
      "Turn": 5729,
      "isa": 5730,
      "anda": 5731,
      "escap": 5732,
      "beer": 5733,
      "plus": 5734,
      "bol": 5735,
      "contain": 5736,
      "progress": 5737,
      "ARD": 5738,
      "clever": 5739,
      "drama": 5740,
      "1990": 5741,
      "Commun": 5742,
      "miser": 5743,
      "invited": 5744,
      "tradition": 5745,
      "library": 5746,
      "34": 5747,
      "Had": 5748,
      "staff": 5749,
      "lored": 5750,
      "Young": 5751,
      "shame": 5752,
      "dese": 5753,
      "pretends": 5754,
      "pony": 5755,
      "Trans": 5756,
      "treated": 5757,
      "Land": 5758,
      "native": 5759,
      "wine": 5760,
      "resent": 5761,
      "handed": 5762,
      "waves": 5763,
      "keeper": 5764,
      "hurried": 5765,
      "weekend": 5766,
      "recording": 5767,
      "screaming": 5768,
      "Irish": 5769,
      "kers": 5770,
      "sang": 5771,
      "imit": 5772,
      "buried": 5773,
      "186": 5774,
      "cupcake": 5775,
      "rolling": 5776,
      "Ari": 5777,
      "Edu": 5778,
      "Honey": 5779,
      "{\\": 5780,
      "asc": 5781,
      "Social": 5782,
      "shoulders": 5783,
      "fired": 5784,
      "mainly": 5785,
      "Group": 5786,
      "collection": 5787,
      "Florida": 5788,
      "Scientists": 5789,
      "Ap": 5790,
      "Cer": 5791,
      "RAN": 5792,
      "Watch": 5793,
      "vest": 5794,
      "thrown": 5795,
      "mob": 5796,
      "conce": 5797,
      "Cos": 5798,
      "cray": 5799,
      "Brother": 5800,
      "checked": 5801,
      "pipe": 5802,
      "destroyed": 5803,
      "Later": 5804,
      "PS": 5805,
      "UK": 5806,
      "zy": 5807,
      "...?": 5808,
      "darkness": 5809,
      "knocked": 5810,
      "delicious": 5811,
      "App": 5812,
      "Gal": 5813,
      "fla": 5814,
      "pity": 5815,
      "pump": 5816,
      "stal": 5817,
      "aye": 5818,
      "losing": 5819,
      "aming": 5820,
      "bitter": 5821,
      "strate": 5822,
      "northern": 5823,
      "pulling": 5824,
      "responsible": 5825,
      "dust": 5826,
      "pile": 5827,
      "height": 5828,
      "drum": 5829,
      "realize": 5830,
      "ification": 5831,
      "excitement": 5832,
      "70": 5833,
      "Blo": 5834,
      "ths": 5835,
      "endid": 5836,
      "tied": 5837,
      "bold": 5838,
      "kings": 5839,
      "attend": 5840,
      "Egypt": 5841,
      "BA": 5842,
      "Jac": 5843,
      "Pop": 5844,
      "ying": 5845,
      "thel": 5846,
      "ali": 5847,
      "chem": 5848,
      "Someone": 5849,
      "buddy": 5850,
      "bodies": 5851,
      "Tilda": 5852,
      "bbles": 5853,
      "skill": 5854,
      "reasons": 5855,
      "omb": 5856,
      "angar": 5857,
      "handsome": 5858,
      "ggle": 5859,
      "prefer": 5860,
      "effort": 5861,
      "recorded": 5862,
      "create": 5863,
      "Emperor": 5864,
      "Help": 5865,
      "Ti": 5866,
      "WIT": 5867,
      "honour": 5868,
      "expression": 5869,
      "utenant": 5870,
      "Records": 5871,
      "tournament": 5872,
      "36": 5873,
      "Cas": 5874,
      "FF": 5875,
      "bicycle": 5876,
      "cue": 5877,
      "tast": 5878,
      "poison": 5879,
      "iger": 5880,
      "justice": 5881,
      "fairy": 5882,
      "thousands": 5883,
      "Georg": 5884,
      "victory": 5885,
      "HV1": 5886,
      "southwestern": 5887,
      "Easter": 5888,
      "cation": 5889,
      "whines": 5890,
      "conqu": 5891,
      "concent": 5892,
      "positive": 5893,
      "complet": 5894,
      "communic": 5895,
      "philoso": 5896,
      "Ira": 5897,
      "Jen": 5898,
      "aunt": 5899,
      "cart": 5900,
      "removed": 5901,
      "tol": 5902,
      "excl": 5903,
      "ARE": 5904,
      "screen": 5905,
      "learning": 5906,
      "professor": 5907,
      "apartment": 5908,
      "truly": 5909,
      "Amy": 5910,
      "Ash": 5911,
      "Lin": 5912,
      "Run": 5913,
      "assu": 5914,
      "nology": 5915,
      "adult": 5916,
      "loose": 5917,
      "divor": 5918,
      "sym": 5919,
      "creatures": 5920,
      "enjoyed": 5921,
      "shouted": 5922,
      "Music": 5923,
      "settlement": 5924,
      "citiz": 5925,
      "cone": 5926,
      "eed": 5927,
      "nod": 5928,
      "accom": 5929,
      "afford": 5930,
      "lessons": 5931,
      "formula": 5932,
      "exciting": 5933,
      "operation": 5934,
      "issues": 5935,
      "Cat": 5936,
      "Kim": 5937,
      "Lake": 5938,
      "boom": 5939,
      "pton": 5940,
      "Alice": 5941,
      "larger": 5942,
      "gently": 5943,
      "listened": 5944,
      "governor": 5945,
      "alphabet": 5946,
      "Hot": 5947,
      "OH": 5948,
      "Wild": 5949,
      "ority": 5950,
      "homes": 5951,
      "contr": 5952,
      "previous": 5953,
      "ugs": 5954,
      "presently": 5955,
      "1993": 5956,
      "towns": 5957,
      "returns": 5958,
      "Should": 5959,
      "snap": 5960,
      "location": 5961,
      "SA": 5962,
      "pite": 5963,
      "patch": 5964,
      "invent": 5965,
      "Whin": 5966,
      "cutting": 5967,
      "1997": 5968,
      "wedding": 5969,
      "BAB": 5970,
      "Lar": 5971,
      "VI": 5972,
      "vation": 5973,
      "sees": 5974,
      "whoops": 5975,
      "clown": 5976,
      "shook": 5977,
      "contribut": 5978,
      "killing": 5979,
      "Book": 5980,
      "icians": 5981,
      "Leo": 5982,
      "horseshoe": 5983,
      "washers": 5984,
      "directly": 5985,
      "HAVE": 5986,
      "circumst": 5987,
      "'...": 5988,
      "Au": 5989,
      "Im": 5990,
      "dump": 5991,
      "iture": 5992,
      "seriously": 5993,
      "1989": 5994,
      "hoping": 5995,
      "target": 5996,
      "jacket": 5997,
      "Bon": 5998,
      "DON": 5999,
      "Fri": 6000,
      "Tam": 6001,
      "bing": 6002,
      "proof": 6003,
      "1981": 6004,
      "independent": 6005,
      "Metro": 6006,
      "attempts": 6007,
      "Wentworth": 6008,
      "laughter": 6009,
      "Night": 6010,
      "Naz": 6011,
      "theast": 6012,
      "chosen": 6013,
      "athy": 6014,
      "badly": 6015,
      "cooking": 6016,
      "splendid": 6017,
      "Each": 6018,
      "Jon": 6019,
      "Si": 6020,
      "Spr": 6021,
      "ingly": 6022,
      "kingdom": 6023,
      "champion": 6024,
      "onsense": 6025,
      "1972": 6026,
      "palace": 6027,
      "dessert": 6028,
      "material": 6029,
      "angaroo": 6030,
      "gur": 6031,
      "link": 6032,
      "whist": 6033,
      "plates": 6034,
      "province": 6035,
      "CON": 6036,
      "1987": 6037,
      "refused": 6038,
      "transport": 6039,
      "!’": 6040,
      "ancy": 6041,
      "vels": 6042,
      "cope": 6043,
      "onel": 6044,
      "ilty": 6045,
      "eping": 6046,
      "prepar": 6047,
      "distur": 6048,
      "raining": 6049,
      "painted": 6050,
      "transfer": 6051,
      "Dire": 6052,
      "Nana": 6053,
      "UCK": 6054,
      "tender": 6055,
      "HING": 6056,
      "sets": 6057,
      "Head": 6058,
      "stein": 6059,
      "Team": 6060,
      "Foot": 6061,
      "Blue": 6062,
      "HV3": 6063,
      "Danny": 6064,
      "distributed": 6065,
      "innocent": 6066,
      "44": 6067,
      "Open": 6068,
      "Por": 6069,
      "obey": 6070,
      "tub": 6071,
      "administ": 6072,
      "includes": 6073,
      "Swiss": 6074,
      "fellows": 6075,
      "cereal": 6076,
      "newspaper": 6077,
      "Bavar": 6078,
      "gus": 6079,
      "uz": 6080,
      "rob": 6081,
      "clay": 6082,
      "Such": 6083,
      "Ramsey": 6084,
      "Bavaria": 6085,
      "Ka": 6086,
      "Sub": 6087,
      "fus": 6088,
      "sne": 6089,
      "beast": 6090,
      "divided": 6091,
      "helps": 6092,
      "shake": 6093,
      "Majesty": 6094,
      "vili": 6095,
      "slightly": 6096,
      "extremely": 6097,
      "Fil": 6098,
      "Jones": 6099,
      "SH": 6100,
      "crew": 6101,
      "piano": 6102,
      "results": 6103,
      "cting": 6104,
      "gee": 6105,
      "counts": 6106,
      "HERE": 6107,
      "Reg": 6108,
      "Art": 6109,
      "tempor": 6110,
      "familiar": 6111,
      "Rodger": 6112,
      "Ton": 6113,
      "method": 6114,
      "stones": 6115,
      "dozen": 6116,
      "admir": 6117,
      "perform": 6118,
      "answers": 6119,
      "paying": 6120,
      "jobs": 6121,
      "kissed": 6122,
      "appointment": 6123,
      "entirely": 6124,
      "Depart": 6125,
      "credit": 6126,
      "possess": 6127,
      "avoid": 6128,
      "giraffe": 6129,
      "defeated": 6130,
      "WITH": 6131,
      "Bra": 6132,
      "Water": 6133,
      "fet": 6134,
      "acle": 6135,
      "otherwise": 6136,
      "muse": 6137,
      "headed": 6138,
      "Anton": 6139,
      "cric": 6140,
      "conditions": 6141,
      "slept": 6142,
      "curious": 6143,
      "troops": 6144,
      "document": 6145,
      "Castle": 6146,
      "Power": 6147,
      "gay": 6148,
      "oke": 6149,
      "instru": 6150,
      "andra": 6151,
      "esome": 6152,
      "appears": 6153,
      "receive": 6154,
      "chester": 6155,
      "lonely": 6156,
      "hes": 6157,
      "mut": 6158,
      "wid": 6159,
      "yum": 6160,
      "aters": 6161,
      "novel": 6162,
      "beans": 6163,
      "shel": 6164,
      "tort": 6165,
      "closet": 6166,
      "desper": 6167,
      "Atl": 6168,
      "suspic": 6169,
      "determined": 6170,
      ")}": 6171,
      "ILL": 6172,
      "Nur": 6173,
      "pure": 6174,
      "rance": 6175,
      "argum": 6176,
      "lyn": 6177,
      "resist": 6178,
      "eaten": 6179,
      "shakes": 6180,
      "pointed": 6181,
      "valu": 6182,
      "1988": 6183,
      "recei": 6184,
      "whispering": 6185,
      "recently": 6186,
      "Princess": 6187,
      "performance": 6188,
      "1w": 6189,
      "AH": 6190,
      "Kat": 6191,
      "arily": 6192,
      "alarm": 6193,
      "guitar": 6194,
      "grat": 6195,
      "hunting": 6196,
      "pted": 6197,
      "aker": 6198,
      "described": 6199,
      "Department": 6200,
      "Tele": 6201,
      "lit": 6202,
      "nuhhuh": 6203,
      "spare": 6204,
      "guilty": 6205,
      "hurts": 6206,
      "signific": 6207,
      "suggested": 6208,
      "Hungry": 6209,
      "magazine": 6210,
      ".--": 6211,
      "Ethel": 6212,
      "lat": 6213,
      "alous": 6214,
      "worthy": 6215,
      "promo": 6216,
      "yells": 6217,
      "strug": 6218,
      "Report": 6219,
      "crossed": 6220,
      "appropri": 6221,
      "Anyway": 6222,
      "characters": 6223,
      "suffered": 6224,
      "Gun": 6225,
      "Know": 6226,
      "Nord": 6227,
      "thie": 6228,
      "bef": 6229,
      "tale": 6230,
      "grade": 6231,
      "airport": 6232,
      "baseball": 6233,
      "drown": 6234,
      "student": 6235,
      "hidden": 6236,
      "branches": 6237,
      "appreciate": 6238,
      "Kansas": 6239,
      "Wrest": 6240,
      "gust": 6241,
      "shed": 6242,
      "1985": 6243,
      "Steve": 6244,
      "designed": 6245,
      "Republican": 6246,
      "Vermont": 6247,
      "photograph": 6248,
      "sorrow": 6249,
      "squee": 6250,
      "Bis": 6251,
      "YOUR": 6252,
      "tum": 6253,
      "civil": 6254,
      "Stand": 6255,
      "girlfriend": 6256,
      "custom": 6257,
      "producer": 6258,
      "fleet": 6259,
      "reports": 6260,
      "shouts": 6261,
      "Betty": 6262,
      "branch": 6263,
      "Hmm": 6264,
      "Jam": 6265,
      "MT": 6266,
      "Ow": 6267,
      "equal": 6268,
      "jack": 6269,
      "chor": 6270,
      "conference": 6271,
      "comune": 6272,
      "Arch": 6273,
      "incident": 6274,
      "Shall": 6275,
      "racing": 6276,
      "defend": 6277,
      "Jerry": 6278,
      "lifted": 6279,
      "chemical": 6280,
      "Were": 6281,
      "Wol": 6282,
      "roles": 6283,
      "istic": 6284,
      "gues": 6285,
      "grant": 6286,
      "strum": 6287,
      "magn": 6288,
      "Leon": 6289,
      "Everybody": 6290,
      "originally": 6291,
      "MacWhin": 6292,
      "puppet": 6293,
      "increase": 6294,
      "false": 6295,
      "Vol": 6296,
      "XX": 6297,
      "kangaroo": 6298,
      "lack": 6299,
      "mary": 6300,
      "nar": 6301,
      "task": 6302,
      "estim": 6303,
      "admit": 6304,
      "som": 6305,
      "mock": 6306,
      "gotten": 6307,
      "stove": 6308,
      "happiness": 6309,
      "Chic": 6310,
      "horrible": 6311,
      "1984": 6312,
      "queer": 6313,
      "sales": 6314,
      "throne": 6315,
      "Mun": 6316,
      "gang": 6317,
      "issa": 6318,
      "becomes": 6319,
      "amen": 6320,
      "glance": 6321,
      "parties": 6322,
      "fier": 6323,
      "package": 6324,
      "39": 6325,
      "Fam": 6326,
      "valley": 6327,
      "associ": 6328,
      "meas": 6329,
      "stack": 6330,
      "lax": 6331,
      "prize": 6332,
      "humming": 6333,
      "magnetic": 6334,
      "ception": 6335,
      "attacked": 6336,
      "burned": 6337,
      "entertain": 6338,
      "authority": 6339,
      "Jersey": 6340,
      "Maggie": 6341,
      "folks": 6342,
      "MacWhinney": 6343,
      "Bor": 6344,
      "Ten": 6345,
      "ient": 6346,
      "provide": 6347,
      "roads": 6348,
      "programme": 6349,
      "gained": 6350,
      "Professor": 6351,
      "Again": 6352,
      "freedom": 6353,
      "attract": 6354,
      "ases": 6355,
      "sters": 6356,
      "seats": 6357,
      "ays": 6358,
      "ada": 6359,
      "logi": 6360,
      "dip": 6361,
      "ushed": 6362,
      "flict": 6363,
      "cycle": 6364,
      "surface": 6365,
      "cowboy": 6366,
      "beneath": 6367,
      "separate": 6368,
      "CD": 6369,
      "Cho": 6370,
      "Dom": 6371,
      "KID": 6372,
      "pred": 6373,
      "HIS": 6374,
      "colored": 6375,
      "olar": 6376,
      "sciss": 6377,
      "strict": 6378,
      "187": 6379,
      "1986": 6380,
      "1969": 6381,
      "explained": 6382,
      "uttered": 6383,
      "Senate": 6384,
      "failure": 6385,
      "comedy": 6386,
      "Minnes": 6387,
      "financial": 6388,
      "PA": 6389,
      "Spen": 6390,
      "Vaud": 6391,
      "ology": 6392,
      "rust": 6393,
      "vast": 6394,
      "domin": 6395,
      "advan": 6396,
      "lob": 6397,
      "urance": 6398,
      "umn": 6399,
      "provid": 6400,
      "proposed": 6401,
      "oldest": 6402,
      "cris": 6403,
      "stranger": 6404,
      "UND": 6405,
      "dollar": 6406,
      "Minnesota": 6407,
      "Ot": 6408,
      "Pac": 6409,
      "rage": 6410,
      "xim": 6411,
      "rope": 6412,
      "consequ": 6413,
      "commer": 6414,
      "aston": 6415,
      "vocal": 6416,
      "restaur": 6417,
      "rison": 6418,
      "Janet": 6419,
      "nearer": 6420,
      "Looks": 6421,
      "boxes": 6422,
      "1979": 6423,
      "structure": 6424,
      "Grace": 6425,
      "Spir": 6426,
      "virus": 6427,
      "attached": 6428,
      "canton": 6429,
      "Americans": 6430,
      "BY": 6431,
      "Rho": 6432,
      "Song": 6433,
      "vain": 6434,
      "wicked": 6435,
      "anced": 6436,
      "chart": 6437,
      "Stay": 6438,
      "chap": 6439,
      "igned": 6440,
      "sixteen": 6441,
      "eighteen": 6442,
      "politan": 6443,
      "RIGHT": 6444,
      "represented": 6445,
      "cottage": 6446,
      "dunno": 6447,
      "LA": 6448,
      "Ob": 6449,
      "Sue": 6450,
      "patter": 6451,
      "ware": 6452,
      "inqu": 6453,
      "severe": 6454,
      "beha": 6455,
      "enters": 6456,
      "gettin": 6457,
      "reser": 6458,
      "ulations": 6459,
      "whenever": 6460,
      "spite": 6461,
      "obje": 6462,
      "ERS": 6463,
      "stepped": 6464,
      "Bertha": 6465,
      "belongs": 6466,
      "Brennan": 6467,
      "remains": 6468,
      "Chicago": 6469,
      "Bour": 6470,
      "GFA": 6471,
      "ached": 6472,
      "din": 6473,
      "raine": 6474,
      "aps": 6475,
      "cheeks": 6476,
      "reality": 6477,
      "charged": 6478,
      "logist": 6479,
      "treatment": 6480,
      "activist": 6481,
      "screams": 6482,
      "Billboard": 6483,
      "drugs": 6484,
      "dreadful": 6485,
      "Awards": 6486,
      "Jun": 6487,
      "Ven": 6488,
      "lace": 6489,
      "vit": 6490,
      "oked": 6491,
      "performed": 6492,
      "visible": 6493,
      "belief": 6494,
      "Comp": 6495,
      "gasps": 6496,
      "gathered": 6497,
      "Jacob": 6498,
      "Person": 6499,
      "Tra": 6500,
      "ography": 6501,
      "fever": 6502,
      "hated": 6503,
      "civili": 6504,
      "Mean": 6505,
      "inois": 6506,
      "Benjam": 6507,
      "pizza": 6508,
      "safely": 6509,
      "Leave": 6510,
      "companion": 6511,
      "knee": 6512,
      "Hurry": 6513,
      "relief": 6514,
      "obliged": 6515,
      "advantage": 6516,
      "Heaven": 6517,
      "IV": 6518,
      "Pier": 6519,
      "Swe": 6520,
      "cate": 6521,
      "onia": 6522,
      "icing": 6523,
      "odd": 6524,
      "mann": 6525,
      "woo": 6526,
      "chose": 6527,
      "passengers": 6528,
      "Indians": 6529,
      "treasure": 6530,
      "moments": 6531,
      "Trump": 6532,
      "Illinois": 6533,
      "washed": 6534,
      "balance": 6535,
      "properly": 6536,
      "Police": 6537,
      "championship": 6538,
      "Bang": 6539,
      "Ci": 6540,
      "reward": 6541,
      "replaced": 6542,
      "toms": 6543,
      "measure": 6544,
      "ros": 6545,
      "ribb": 6546,
      "etc": 6547,
      "hore": 6548,
      "conv": 6549,
      "wolf": 6550,
      "imper": 6551,
      "drag": 6552,
      "studies": 6553,
      "ruled": 6554,
      "murdered": 6555,
      "electric": 6556,
      "satisfied": 6557,
      "fortunately": 6558,
      "breast": 6559,
      "source": 6560,
      "average": 6561,
      "Besides": 6562,
      "Ku": 6563,
      "Pi": 6564,
      "Tar": 6565,
      "craw": 6566,
      "gers": 6567,
      "hast": 6568,
      "mort": 6569,
      "ua": 6570,
      "arest": 6571,
      "romantic": 6572,
      "Road": 6573,
      "Chuck": 6574,
      "Common": 6575,
      "statement": 6576,
      "Produ": 6577,
      "warning": 6578,
      "individual": 6579,
      "Ay": 6580,
      "GET": 6581,
      "upper": 6582,
      "Helen": 6583,
      "ppers": 6584,
      "pursu": 6585,
      "forests": 6586,
      "sexual": 6587,
      "knees": 6588,
      "introduced": 6589,
      "committee": 6590,
      "influence": 6591,
      "arranged": 6592,
      "\"'": 6593,
      "BER": 6594,
      "Games": 6595,
      "enem": 6596,
      "wealth": 6597,
      "nels": 6598,
      "agent": 6599,
      "auto": 6600,
      "Health": 6601,
      "resident": 6602,
      "pride": 6603,
      "Reli": 6604,
      "Armen": 6605,
      "cycl": 6606,
      "regret": 6607,
      "bara": 6608,
      "teaching": 6609,
      "confess": 6610,
      "southern": 6611,
      "features": 6612,
      "furniture": 6613,
      "Daniel": 6614,
      "pregnant": 6615,
      "Benjamin": 6616,
      "Buck": 6617,
      "zes": 6618,
      "asks": 6619,
      "icide": 6620,
      "cock": 6621,
      "themat": 6622,
      "actions": 6623,
      "Mos": 6624,
      "Jos": 6625,
      "expensive": 6626,
      "split": 6627,
      "discussion": 6628,
      "critical": 6629,
      "connected": 6630,
      "broadcast": 6631,
      "guests": 6632,
      "journalist": 6633,
      "microphone": 6634,
      "powder": 6635,
      "enemies": 6636,
      "ais": 6637,
      "awake": 6638,
      "hug": 6639,
      "jail": 6640,
      "relax": 6641,
      "charm": 6642,
      "uties": 6643,
      "lod": 6644,
      "map": 6645,
      "players": 6646,
      "iley": 6647,
      "observed": 6648,
      "scare": 6649,
      "ension": 6650,
      "burgh": 6651,
      "apparently": 6652,
      "Service": 6653,
      "JAK": 6654,
      "KNOW": 6655,
      "tool": 6656,
      "ingu": 6657,
      "stress": 6658,
      "web": 6659,
      "umes": 6660,
      "opt": 6661,
      "complic": 6662,
      "Andy": 6663,
      "gray": 6664,
      "reads": 6665,
      "Coll": 6666,
      "Move": 6667,
      "ugly": 6668,
      "rained": 6669,
      "client": 6670,
      "fishing": 6671,
      "supported": 6672,
      "recognize": 6673,
      "delighted": 6674,
      "suffering": 6675,
      "Mexican": 6676,
      "assistant": 6677,
      "stroke": 6678,
      "Wonder": 6679,
      "Virginia": 6680,
      "grateful": 6681,
      "drunk": 6682,
      "Found": 6683,
      "Ian": 6684,
      "Kir": 6685,
      "vine": 6686,
      "andy": 6687,
      "ading": 6688,
      "ola": 6689,
      "sooner": 6690,
      "drinks": 6691,
      "warri": 6692,
      "trained": 6693,
      "1976": 6694,
      "Jewish": 6695,
      "swear": 6696,
      "secure": 6697,
      "jumping": 6698,
      "throwing": 6699,
      "circumstances": 6700,
      "JUST": 6701,
      "Oliver": 6702,
      "Sher": 6703,
      "mous": 6704,
      "rit": 6705,
      "ader": 6706,
      "cohol": 6707,
      "stole": 6708,
      "stops": 6709,
      "Institute": 6710,
      "mayor": 6711,
      "begun": 6712,
      "hammer": 6713,
      "Iraq": 6714,
      "scissors": 6715,
      "Les": 6716,
      "ov": 6717,
      "revolution": 6718,
      "bee": 6719,
      "fords": 6720,
      "agger": 6721,
      "shy": 6722,
      "workers": 6723,
      "mony": 6724,
      "attended": 6725,
      "incred": 6726,
      "apologi": 6727,
      "rapidly": 6728,
      "miserable": 6729,
      "',": 6730,
      "Bac": 6731,
      "Stell": 6732,
      "neath": 6733,
      "sin": 6734,
      "von": 6735,
      "oned": 6736,
      "recomm": 6737,
      "beep": 6738,
      "ghan": 6739,
      "vering": 6740,
      "ups": 6741,
      "hers": 6742,
      "waved": 6743,
      "scen": 6744,
      "sticking": 6745,
      "trium": 6746,
      "Shar": 6747,
      "HV2": 6748,
      "bbing": 6749,
      "fortunate": 6750,
      "1st": 6751,
      "Jr": 6752,
      "fra": 6753,
      "eration": 6754,
      "tery": 6755,
      "Thou": 6756,
      "Whoa": 6757,
      "1978": 6758,
      "servants": 6759,
      "GRF": 6760,
      "invest": 6761,
      "AUG": 6762,
      "occurred": 6763,
      "olarship": 6764,
      "Southern": 6765,
      "Cub": 6766,
      "Gre": 6767,
      "umed": 6768,
      "affect": 6769,
      "inson": 6770,
      "counting": 6771,
      "founder": 6772,
      "clim": 6773,
      "Guard": 6774,
      "Stephen": 6775,
      "doggy": 6776,
      "bishop": 6777,
      "Welcome": 6778,
      "demonstr": 6779,
      "Wrestling": 6780,
      "FRI": 6781,
      "ION": 6782,
      "cti": 6783,
      "pical": 6784,
      "thed": 6785,
      "resour": 6786,
      "omer": 6787,
      "bron": 6788,
      "pshire": 6789,
      "criter": 6790,
      "opens": 6791,
      "flash": 6792,
      "function": 6793,
      "decor": 6794,
      "eastern": 6795,
      "politics": 6796,
      "EX2": 6797,
      "stitu": 6798,
      "Emily": 6799,
      "recognized": 6800,
      "Middle": 6801,
      "museum": 6802,
      "Nurse": 6803,
      "!--": 6804,
      "Cli": 6805,
      "Glad": 6806,
      "Kate": 6807,
      "Light": 6808,
      "cub": 6809,
      "rd": 6810,
      "initi": 6811,
      "lipp": 6812,
      "unton": 6813,
      "tear": 6814,
      "improve": 6815,
      "provided": 6816,
      "earn": 6817,
      "landed": 6818,
      "Also": 6819,
      "Norway": 6820,
      "thorough": 6821,
      "effects": 6822,
      "Ori": 6823,
      "Rac": 6824,
      "Rap": 6825,
      "Woo": 6826,
      "hen": 6827,
      "aly": 6828,
      "bears": 6829,
      "rod": 6830,
      "neg": 6831,
      "saving": 6832,
      "trunk": 6833,
      "Alf": 6834,
      "Alan": 6835,
      "animated": 6836,
      "Commit": 6837,
      "1968": 6838,
      "atherine": 6839,
      "Jennie": 6840,
      "ashamed": 6841,
      "Clara": 6842,
      "Ak": 6843,
      "Apo": 6844,
      "Ell": 6845,
      "latter": 6846,
      "nonsense": 6847,
      "required": 6848,
      "abs": 6849,
      "phones": 6850,
      "kindly": 6851,
      "sounded": 6852,
      "tribe": 6853,
      "1983": 6854,
      "Command": 6855,
      "dows": 6856,
      "lately": 6857,
      "ilian": 6858,
      "neighborhood": 6859,
      "nibbled": 6860,
      "Stella": 6861,
      "Ass": 6862,
      "Death": 6863,
      "Isa": 6864,
      "OP": 6865,
      "Whe": 6866,
      "iest": 6867,
      "infe": 6868,
      "covery": 6869,
      "ulk": 6870,
      "shh": 6871,
      "Revolution": 6872,
      "lesson": 6873,
      "steal": 6874,
      "THERE": 6875,
      "horror": 6876,
      "archite": 6877,
      "pushing": 6878,
      "faced": 6879,
      "Luke": 6880,
      "neighb": 6881,
      "accepted": 6882,
      "fordshire": 6883,
      "Tu": 6884,
      "Tha": 6885,
      "[\"": 6886,
      "brow": 6887,
      "dull": 6888,
      "defeat": 6889,
      "exits": 6890,
      "discover": 6891,
      "desire": 6892,
      "persu": 6893,
      "commiss": 6894,
      "engaged": 6895,
      "follows": 6896,
      "sending": 6897,
      "Floss": 6898,
      "llenge": 6899,
      "Bus": 6900,
      "OD": 6901,
      "Seven": 6902,
      "Tay": 6903,
      "Tok": 6904,
      "Want": 6905,
      "Wind": 6906,
      "lung": 6907,
      "owe": 6908,
      "rels": 6909,
      "tories": 6910,
      "chin": 6911,
      "ained": 6912,
      "disappointed": 6913,
      "underneath": 6914,
      "reak": 6915,
      "greet": 6916,
      "passion": 6917,
      "valent": 6918,
      "thirteen": 6919,
      "garage": 6920,
      "daily": 6921,
      "Jackson": 6922,
      "officially": 6923,
      "Scottish": 6924,
      "Battle": 6925,
      "Nep": 6926,
      "__": 6927,
      "pine": 6928,
      "toast": 6929,
      "hoped": 6930,
      "hibit": 6931,
      "maker": 6932,
      "illness": 6933,
      "illustr": 6934,
      "quot": 6935,
      "redu": 6936,
      "carpet": 6937,
      "shock": 6938,
      "ketch": 6939,
      "musical": 6940,
      "mbly": 6941,
      "Indeed": 6942,
      "apping": 6943,
      "squir": 6944,
      "awarded": 6945,
      "appropriate": 6946,
      "Committee": 6947,
      "cill": 6948,
      "file": 6949,
      "gs": 6950,
      "vig": 6951,
      "pee": 6952,
      "seek": 6953,
      "ART": 6954,
      "diam": 6955,
      "division": 6956,
      "damage": 6957,
      "radi": 6958,
      "washing": 6959,
      "presidential": 6960,
      "elder": 6961,
      "Agent": 6962,
      "NON": 6963,
      "Yu": 6964,
      "bass": 6965,
      "echo": 6966,
      "esh": 6967,
      "estate": 6968,
      "ounds": 6969,
      "Stone": 6970,
      "records": 6971,
      "systems": 6972,
      "slipped": 6973,
      "basketball": 6974,
      "Staunton": 6975,
      "Ukraine": 6976,
      "Football": 6977,
      "(,": 6978,
      "CA": 6979,
      "LES": 6980,
      "sched": 6981,
      "thirst": 6982,
      "socks": 6983,
      "types": 6984,
      "shower": 6985,
      "score": 6986,
      "investigation": 6987,
      "FO": 6988,
      "Hun": 6989,
      "Ve": 6990,
      "lest": 6991,
      "pas": 6992,
      "stared": 6993,
      "standard": 6994,
      "pretending": 6995,
      "aws": 6996,
      "ringing": 6997,
      "eventually": 6998,
      "Bundle": 6999,
      "annoy": 7000,
      "Dun": 7001,
      "Hard": 7002,
      "mama": 7003,
      "ón": 7004,
      "ala": 7005,
      "hills": 7006,
      "hunt": 7007,
      "shopping": 7008,
      "supply": 7009,
      "precious": 7010,
      "jealous": 7011,
      "ugal": 7012,
      "wondered": 7013,
      "REAM": 7014,
      "Carle": 7015,
      "reply": 7016,
      "ika": 7017,
      "advance": 7018,
      "resolved": 7019,
      "triumph": 7020,
      "Athen": 7021,
      "Ja": 7022,
      "Yep": 7023,
      "lou": 7024,
      "rand": 7025,
      "sive": 7026,
      "encour": 7027,
      "itz": 7028,
      "mood": 7029,
      "aircraft": 7030,
      "topher": 7031,
      "hippo": 7032,
      "Jews": 7033,
      "Colin": 7034,
      "agreement": 7035,
      "Islamic": 7036,
      "completed": 7037,
      "Rangers": 7038,
      "naught": 7039,
      "tan": 7040,
      "hem": 7041,
      "oft": 7042,
      "seated": 7043,
      "alcohol": 7044,
      "powers": 7045,
      "pled": 7046,
      "boot": 7047,
      "exchange": 7048,
      "causes": 7049,
      "phan": 7050,
      "consist": 7051,
      "grandma": 7052,
      "vania": 7053,
      "brilli": 7054,
      "mistress": 7055,
      "?’": 7056,
      "CI": 7057,
      "Penn": 7058,
      "mates": 7059,
      "stup": 7060,
      "altern": 7061,
      "dol": 7062,
      "rily": 7063,
      "sauce": 7064,
      "earnest": 7065,
      "Rob": 7066,
      "greatly": 7067,
      "Somebody": 7068,
      "stronger": 7069,
      "transl": 7070,
      "federal": 7071,
      "management": 7072,
      "Francisco": 7073,
      "escaped": 7074,
      "Ball": 7075,
      "EP": 7076,
      "Nav": 7077,
      "sought": 7078,
      "seized": 7079,
      "unhappy": 7080,
      "tims": 7081,
      "shit": 7082,
      "sible": 7083,
      "Thus": 7084,
      "frag": 7085,
      "Holly": 7086,
      "farmer": 7087,
      "flood": 7088,
      "1980": 7089,
      "1982": 7090,
      "Gram": 7091,
      "1945": 7092,
      "doctors": 7093,
      "Prize": 7094,
      "Golden": 7095,
      "wounded": 7096,
      "adventure": 7097,
      "graduated": 7098,
      "Pictures": 7099,
      "Cro": 7100,
      "Sister": 7101,
      "fits": 7102,
      "inal": 7103,
      "removes": 7104,
      "zzy": 7105,
      "friger": 7106,
      "Region": 7107,
      "awfully": 7108,
      "humans": 7109,
      "1971": 7110,
      "confidence": 7111,
      "attacks": 7112,
      "secretary": 7113,
      "Hampshire": 7114,
      "Jenny": 7115,
      "Spirit": 7116,
      "65": 7117,
      "Dam": 7118,
      "End": 7119,
      "LIN": 7120,
      "Tower": 7121,
      "cra": 7122,
      "frequ": 7123,
      "nies": 7124,
      "mel": 7125,
      "inten": 7126,
      "stool": 7127,
      "rude": 7128,
      "network": 7129,
      "farther": 7130,
      "pushes": 7131,
      "GRM": 7132,
      "borrow": 7133,
      "prisoner": 7134,
      "costs": 7135,
      "Woman": 7136,
      "occupied": 7137,
      "Sweden": 7138,
      "Education": 7139,
      "enna": 7140,
      "ington": 7141,
      "forts": 7142,
      "coal": 7143,
      "pops": 7144,
      "1930": 7145,
      "spy": 7146,
      "prince": 7147,
      "preser": 7148,
      "lessly": 7149,
      "pardon": 7150,
      "fled": 7151,
      "185": 7152,
      "passage": 7153,
      "chairs": 7154,
      "corpor": 7155,
      "Berlin": 7156,
      "Columb": 7157,
      "slip": 7158,
      "Muslim": 7159,
      "labor": 7160,
      "Daisy": 7161,
      "Melissa": 7162,
      "physical": 7163,
      "Caterpillar": 7164,
      "Gard": 7165,
      "Plan": 7166,
      "Rim": 7167,
      "Tilly": 7168,
      "pis": 7169,
      "haha": 7170,
      "advis": 7171,
      "dece": 7172,
      "arson": 7173,
      "trains": 7174,
      "Booth": 7175,
      "Mayor": 7176,
      "volume": 7177,
      "yawn": 7178,
      "Ryan": 7179,
      "platform": 7180,
      "exercise": 7181,
      "hetti": 7182,
      "33": 7183,
      "Ev": 7184,
      "PH": 7185,
      "Sky": 7186,
      "rear": 7187,
      "goals": 7188,
      "wire": 7189,
      "ented": 7190,
      "pole": 7191,
      "shell": 7192,
      "venge": 7193,
      "mercy": 7194,
      "awesome": 7195,
      "data": 7196,
      "UNT": 7197,
      "1977": 7198,
      "closely": 7199,
      "accused": 7200,
      "Aldworth": 7201,
      "quality": 7202,
      "tricks": 7203,
      "Centre": 7204,
      "Bobby": 7205,
      "multiple": 7206,
      "Spencer": 7207,
      "Gy": 7208,
      "Sit": 7209,
      "mally": 7210,
      "instrum": 7211,
      "healthy": 7212,
      "stable": 7213,
      "earned": 7214,
      "dragon": 7215,
      "highly": 7216,
      "Holy": 7217,
      "1974": 7218,
      "1964": 7219,
      "changing": 7220,
      "Barbara": 7221,
      "Represent": 7222,
      "Jimmy": 7223,
      "Family": 7224,
      "tend": 7225,
      "vices": 7226,
      "ester": 7227,
      "bloody": 7228,
      "Brooke": 7229,
      "driven": 7230,
      "metres": 7231,
      "1967": 7232,
      "footballer": 7233,
      "housing": 7234,
      "UEFA": 7235,
      "CAN": 7236,
      "cash": 7237,
      "hr": 7238,
      "chill": 7239,
      "explan": 7240,
      "image": 7241,
      "intended": 7242,
      "Soon": 7243,
      "Roger": 7244,
      "ignor": 7245,
      "colon": 7246,
      "Too": 7247,
      "teachers": 7248,
      "lamb": 7249,
      "favourite": 7250,
      "nominated": 7251,
      "ckey": 7252,
      "kh": 7253,
      "án": 7254,
      "inton": 7255,
      "hundreds": 7256,
      "1970": 7257,
      "profit": 7258,
      "Wales": 7259,
      "delightful": 7260,
      "experiment": 7261,
      "environmental": 7262,
      "Company": 7263,
      "frigerator": 7264,
      "LING": 7265,
      "Mouse": 7266,
      "Tem": 7267,
      "cig": 7268,
      "ders": 7269,
      "tent": 7270,
      "pel": 7271,
      "suffici": 7272,
      "permission": 7273,
      "torney": 7274,
      "gled": 7275,
      "joint": 7276,
      "���": 7277,
      "ridge": 7278,
      "difficulty": 7279,
      "300": 7280,
      "75": 7281,
      "Aha": 7282,
      "Ayl": 7283,
      "Bio": 7284,
      "CHE": 7285,
      "Die": 7286,
      "Dale": 7287,
      "Must": 7288,
      "Rail": 7289,
      "gian": 7290,
      "sca": 7291,
      "remo": 7292,
      "tians": 7293,
      "bore": 7294,
      "interrup": 7295,
      "Ready": 7296,
      "cents": 7297,
      "sixth": 7298,
      "Northern": 7299,
      "Without": 7300,
      "Christopher": 7301,
      "instance": 7302,
      "Greece": 7303,
      "Basil": 7304,
      "climbed": 7305,
      "louder": 7306,
      "fate": 7307,
      "plot": 7308,
      "punch": 7309,
      "winner": 7310,
      "fox": 7311,
      "propos": 7312,
      "Station": 7313,
      "boyfriend": 7314,
      "aka": 7315,
      "capable": 7316,
      "1975": 7317,
      "1946": 7318,
      "victims": 7319,
      "billion": 7320,
      "Aylmer": 7321,
      "Aub": 7322,
      "Bible": 7323,
      "Cri": 7324,
      "Lad": 7325,
      "Sel": 7326,
      "Top": 7327,
      "gon": 7328,
      "mile": 7329,
      "atre": 7330,
      "contro": 7331,
      "understanding": 7332,
      "emplo": 7333,
      "spirits": 7334,
      "scientific": 7335,
      "details": 7336,
      "46": 7337,
      "CT": 7338,
      "Fro": 7339,
      "Kong": 7340,
      "inse": 7341,
      "bean": 7342,
      "pear": 7343,
      "wave": 7344,
      "portion": 7345,
      "committed": 7346,
      "songwriter": 7347,
      "Point": 7348,
      "Dragon": 7349,
      "tomato": 7350,
      "amongst": 7351,
      "instant": 7352,
      "grunts": 7353,
      "Lieutenant": 7354,
      "Duck": 7355,
      "Eastern": 7356,
      "Publ": 7357,
      "Sud": 7358,
      "inch": 7359,
      "sector": 7360,
      "altogether": 7361,
      "keen": 7362,
      "soap": 7363,
      "aco": 7364,
      "rier": 7365,
      "loving": 7366,
      "unknown": 7367,
      "posing": 7368,
      "quo": 7369,
      "carto": 7370,
      "launch": 7371,
      "ashes": 7372,
      "Security": 7373,
      "syl": 7374,
      "papa": 7375,
      "stern": 7376,
      "signs": 7377,
      "produce": 7378,
      "millions": 7379,
      "Shakes": 7380,
      "Human": 7381,
      "stretched": 7382,
      "Griff": 7383,
      "Film": 7384,
      "Moscow": 7385,
      "Bird": 7386,
      "PO": 7387,
      "Twenty": 7388,
      "Wi": 7389,
      "evolution": 7390,
      "vity": 7391,
      "feast": 7392,
      "whoo": 7393,
      "sery": 7394,
      "Anna": 7395,
      "inned": 7396,
      "realized": 7397,
      "awk": 7398,
      "product": 7399,
      "Philipp": 7400,
      "allows": 7401,
      "claims": 7402,
      "tracks": 7403,
      "puppy": 7404,
      "lemn": 7405,
      "mamma": 7406,
      "Flossie": 7407,
      "Aren": 7408,
      "Hong": 7409,
      "Nations": 7410,
      "SPE": 7411,
      "dor": 7412,
      "rhy": 7413,
      "vard": 7414,
      "wag": 7415,
      "toss": 7416,
      "hase": 7417,
      "actual": 7418,
      "cheap": 7419,
      "trail": 7420,
      "grape": 7421,
      "sunshine": 7422,
      "iversal": 7423,
      "signal": 7424,
      "incor": 7425,
      "importance": 7426,
      "protection": 7427,
      "activity": 7428,
      "equipment": 7429,
      "Lan": 7430,
      "Py": 7431,
      "Vill": 7432,
      "banks": 7433,
      "cran": 7434,
      "dining": 7435,
      "fain": 7436,
      "ore": 7437,
      "heim": 7438,
      "poo": 7439,
      "rescue": 7440,
      "epend": 7441,
      "kinda": 7442,
      "colour": 7443,
      "News": 7444,
      "struggle": 7445,
      "faction": 7446,
      "bearing": 7447,
      "organized": 7448,
      "Syrian": 7449,
      "technology": 7450,
      "slave": 7451,
      "Raymond": 7452,
      "Esther": 7453,
      "Turkish": 7454,
      "evidently": 7455,
      "cricket": 7456,
      "Columbia": 7457,
      "Shakespe": 7458,
      "LAUG": 7459,
      "faint": 7460,
      "pul": 7461,
      "unit": 7462,
      "nephe": 7463,
      "mathemat": 7464,
      "spark": 7465,
      "acts": 7466,
      "minds": 7467,
      "Independ": 7468,
      "1960": 7469,
      "1959": 7470,
      "Dora": 7471,
      "umbre": 7472,
      "connection": 7473,
      "increased": 7474,
      "industrial": 7475,
      "scientists": 7476,
      "responsibility": 7477,
      "Asia": 7478,
      "eagerly": 7479,
      "sacrif": 7480,
      "accompl": 7481,
      "Director": 7482,
      "Taylor": 7483,
      "49": 7484,
      "Bub": 7485,
      "bay": 7486,
      "bent": 7487,
      "cage": 7488,
      "iance": 7489,
      "rink": 7490,
      "oped": 7491,
      "cuts": 7492,
      "1973": 7493,
      "possibility": 7494,
      "starring": 7495,
      "authorities": 7496,
      "neighbour": 7497,
      "Portugal": 7498,
      "commission": 7499,
      "brilliant": 7500,
      "Shakespeare": 7501,
      "Auth": 7502,
      "Festival": 7503,
      "rus": 7504,
      "uan": 7505,
      "chat": 7506,
      "mode": 7507,
      "opy": 7508,
      "comin": 7509,
      "ranch": 7510,
      "icial": 7511,
      "distingu": 7512,
      "switch": 7513,
      "organis": 7514,
      "belonged": 7515,
      "slaves": 7516,
      "Sandra": 7517,
      "Office": 7518,
      "Girls": 7519,
      "Jungle": 7520,
      "divorce": 7521,
      "88": 7522,
      "MI": 7523,
      "PR": 7524,
      "Page": 7525,
      "Snow": 7526,
      "dirt": 7527,
      "tus": 7528,
      "wy": 7529,
      "erous": 7530,
      "tox": 7531,
      "aband": 7532,
      "deer": 7533,
      "letting": 7534,
      "disgust": 7535,
      "glas": 7536,
      "supp": 7537,
      "surgery": 7538,
      "friendship": 7539,
      "purse": 7540,
      "Conserv": 7541,
      "Keith": 7542,
      "loyal": 7543,
      "audience": 7544,
      "nuclear": 7545,
      "Georgia": 7546,
      "argument": 7547,
      "47": 7548,
      "Bi": 7549,
      "DS": 7550,
      "LIT": 7551,
      "bust": 7552,
      "cca": 7553,
      "pad": 7554,
      "ugh": 7555,
      "vas": 7556,
      "iner": 7557,
      "retire": 7558,
      "ller": 7559,
      "seal": 7560,
      "liar": 7561,
      "Though": 7562,
      "brid": 7563,
      "issy": 7564,
      "glor": 7565,
      "mothers": 7566,
      "marble": 7567,
      "weethe": 7568,
      "Newman": 7569,
      "steel": 7570,
      "register": 7571,
      "Afghan": 7572,
      "Probably": 7573,
      "ASE": 7574,
      "touching": 7575,
      "Anything": 7576,
      "votes": 7577,
      "Championships": 7578,
      "seventeen": 7579,
      "HOW": 7580,
      "Bunny": 7581,
      "injured": 7582,
      "economic": 7583,
      "stupid": 7584,
      "Cze": 7585,
      "Fle": 7586,
      "Moun": 7587,
      "Nat": 7588,
      "TP": 7589,
      "income": 7590,
      "erg": 7591,
      "mechan": 7592,
      "beings": 7593,
      "solemn": 7594,
      "aghetti": 7595,
      "pepper": 7596,
      "applic": 7597,
      "clam": 7598,
      "label": 7599,
      "effe": 7600,
      "bottles": 7601,
      "senior": 7602,
      "blowing": 7603,
      "dinosaurs": 7604,
      "Cambridge": 7605,
      "barely": 7606,
      "succeeded": 7607,
      "restaurant": 7608,
      "Ghost": 7609,
      "Mod": 7610,
      "Nar": 7611,
      "Pho": 7612,
      "brew": 7613,
      "ckets": 7614,
      "kar": 7615,
      "ín": 7616,
      "edi": 7617,
      "hath": 7618,
      "goti": 7619,
      "manu": 7620,
      "geant": 7621,
      "icking": 7622,
      "spider": 7623,
      "yell": 7624,
      "previously": 7625,
      "damn": 7626,
      "subst": 7627,
      "cliff": 7628,
      "alem": 7629,
      "expecting": 7630,
      "violence": 7631,
      "holidays": 7632,
      "visitors": 7633,
      "Argentina": 7634,
      "Mans": 7635,
      "Nonna": 7636,
      "Pak": 7637,
      "seasons": 7638,
      "entrance": 7639,
      "sav": 7640,
      "ulate": 7641,
      "tales": 7642,
      "embarr": 7643,
      "ordan": 7644,
      "challenge": 7645,
      "Anim": 7646,
      "certi": 7647,
      "voy": 7648,
      "Islands": 7649,
      "harder": 7650,
      "fires": 7651,
      "dawn": 7652,
      "Greater": 7653,
      "concern": 7654,
      "shouting": 7655,
      "foolish": 7656,
      "faithful": 7657,
      "culture": 7658,
      "selected": 7659,
      "captured": 7660,
      "temporary": 7661,
      "GRO": 7662,
      "Tour": 7663,
      "hits": 7664,
      "nis": 7665,
      "vive": 7666,
      "ashore": 7667,
      "adium": 7668,
      "mos": 7669,
      "tering": 7670,
      "indign": 7671,
      "endar": 7672,
      "stolen": 7673,
      "visions": 7674,
      "dropping": 7675,
      "1965": 7676,
      "1947": 7677,
      "swift": 7678,
      "nursery": 7679,
      "symptoms": 7680,
      "affairs": 7681,
      "Douglas": 7682,
      "benefit": 7683,
      "apologize": 7684,
      "embarrass": 7685,
      "Ai": 7686,
      "Bab": 7687,
      "Clo": 7688,
      "Kid": 7689,
      "Mam": 7690,
      "RL": 7691,
      "Ruth": 7692,
      "Ye": 7693,
      "]...": 7694,
      "gam": 7695,
      "insp": 7696,
      "remove": 7697,
      "toes": 7698,
      "sore": 7699,
      "cops": 7700,
      "poem": 7701,
      "constitu": 7702,
      "shining": 7703,
      "desert": 7704,
      "fric": 7705,
      "presented": 7706,
      "THEY": 7707,
      "triangle": 7708,
      "chairman": 7709,
      "Exactly": 7710,
      "shortly": 7711,
      "1948": 7712,
      "confused": 7713,
      "daughters": 7714,
      "Bern": 7715,
      "HV5": 7716,
      "packed": 7717,
      "majority": 7718,
      "Oxfordshire": 7719,
      "Milan": 7720,
      "citizens": 7721,
      "Reliance": 7722,
      "48": 7723,
      "Cons": 7724,
      "Ever": 7725,
      "Pret": 7726,
      "Tak": 7727,
      "gment": 7728,
      "gade": 7729,
      "mings": 7730,
      "online": 7731,
      "replace": 7732,
      "envelo": 7733,
      "secut": 7734,
      "utions": 7735,
      "sheet": 7736,
      "conven": 7737,
      "Through": 7738,
      "buzz": 7739,
      "beds": 7740,
      "grees": 7741,
      "charges": 7742,
      "directions": 7743,
      "archer": 7744,
      "1956": 7745,
      "creation": 7746,
      "smooth": 7747,
      "THING": 7748,
      "adopted": 7749,
      "require": 7750,
      "hesit": 7751,
      "crisis": 7752,
      "Dur": 7753,
      "Find": 7754,
      "Hank": 7755,
      "Linda": 7756,
      "Muse": 7757,
      "wick": 7758,
      "enger": 7759,
      "HIM": 7760,
      "beard": 7761,
      "rah": 7762,
      "happily": 7763,
      "coln": 7764,
      "spoons": 7765,
      "cleaning": 7766,
      "Russians": 7767,
      "refers": 7768,
      "Romans": 7769,
      "violent": 7770,
      "Personal": 7771,
      "resources": 7772,
      "Rimbolt": 7773,
      "Fat": 7774,
      "Hand": 7775,
      "Jay": 7776,
      "Mount": 7777,
      "Pass": 7778,
      "dressing": 7779,
      "fli": 7780,
      "ux": 7781,
      "unable": 7782,
      "democr": 7783,
      "conflict": 7784,
      "20th": 7785,
      "icecream": 7786,
      "sphere": 7787,
      "ferences": 7788,
      "commonly": 7789,
      "basically": 7790,
      "Hungary": 7791,
      "SOME": 7792,
      "historical": 7793,
      "Wolf": 7794,
      "Dra": 7795,
      "Fun": 7796,
      "Hit": 7797,
      "Hay": 7798,
      "Il": 7799,
      "Nin": 7800,
      "Tit": 7801,
      "WOR": 7802,
      "awa": 7803,
      "ec": 7804,
      "jan": 7805,
      "rative": 7806,
      "sung": 7807,
      "ette": 7808,
      "artists": 7809,
      "Count": 7810,
      "1963": 7811,
      "pilot": 7812,
      "beaten": 7813,
      "Celia": 7814,
      "conduct": 7815,
      "SCREAM": 7816,
      "PLAY": 7817,
      "camps": 7818,
      "scheme": 7819,
      "Tokyo": 7820,
      "sylvania": 7821,
      "nephew": 7822,
      "Center": 7823,
      "Doub": 7824,
      "Eh": 7825,
      "Kira": 7826,
      "Made": 7827,
      "Sport": 7828,
      "rag": 7829,
      "rine": 7830,
      "session": 7831,
      "tack": 7832,
      "theless": 7833,
      "thetic": 7834,
      "lect": 7835,
      "iring": 7836,
      "negoti": 7837,
      "conserv": 7838,
      "ulted": 7839,
      "sprang": 7840,
      "Colo": 7841,
      "breathing": 7842,
      "Bring": 7843,
      "lley": 7844,
      "products": 7845,
      "temple": 7846,
      "figured": 7847,
      "heavily": 7848,
      "drawer": 7849,
      "blows": 7850,
      "Patrick": 7851,
      "Israeli": 7852,
      "delicate": 7853,
      "Egyp": 7854,
      "thief": 7855,
      "weetheart": 7856,
      "Fur": 7857,
      "Glo": 7858,
      "Pau": 7859,
      "Sab": 7860,
      "UM": 7861,
      "bby": 7862,
      "duties": 7863,
      "mea": 7864,
      "lemon": 7865,
      "sty": 7866,
      "march": 7867,
      "Bell": 7868,
      "cared": 7869,
      "sites": 7870,
      "syll": 7871,
      "distress": 7872,
      "Drum": 7873,
      "classes": 7874,
      "nickel": 7875,
      "Liber": 7876,
      "thusi": 7877,
      "napkin": 7878,
      "cheerful": 7879,
      "mobile": 7880,
      "advanced": 7881,
      "frame": 7882,
      "Pennsylvania": 7883,
      "Hang": 7884,
      "Wat": 7885,
      "kun": 7886,
      "ule": 7887,
      "waters": 7888,
      "root": 7889,
      "wels": 7890,
      "article": 7891,
      "IND": 7892,
      "Until": 7893,
      "persons": 7894,
      "gazed": 7895,
      "attered": 7896,
      "solid": 7897,
      "borough": 7898,
      "complex": 7899,
      "Polish": 7900,
      "anxiety": 7901,
      "affected": 7902,
      "emergency": 7903,
      "Ali": 7904,
      "Cry": 7905,
      "Ice": 7906,
      "WAY": 7907,
      "jumps": 7908,
      "pant": 7909,
      "tis": 7910,
      "tummy": 7911,
      "tore": 7912,
      "enthusi": 7913,
      "betray": 7914,
      "riam": 7915,
      "agno": 7916,
      "omi": 7917,
      "seless": 7918,
      "blew": 7919,
      "IST": 7920,
      "compared": 7921,
      "Moon": 7922,
      "buying": 7923,
      "Colonel": 7924,
      "cows": 7925,
      "Korea": 7926,
      "Desmond": 7927,
      "Brazilian": 7928,
      "manufact": 7929,
      "CL": 7930,
      "Chair": 7931,
      "PAU": 7932,
      "Rub": 7933,
      "Stor": 7934,
      "WN": 7935,
      "cers": 7936,
      "dates": 7937,
      "rated": 7938,
      "tad": 7939,
      "uals": 7940,
      "inquired": 7941,
      "abor": 7942,
      "degrees": 7943,
      "icks": 7944,
      "span": 7945,
      "Soci": 7946,
      "COME": 7947,
      "Justice": 7948,
      "gym": 7949,
      "Champion": 7950,
      "basis": 7951,
      "companions": 7952,
      "Turkey": 7953,
      "activities": 7954,
      "employed": 7955,
      "Scarfe": 7956,
      "candidate": 7957,
      "Children": 7958,
      "Lincoln": 7959,
      "formula_": 7960,
      "Cad": 7961,
      "Sol": 7962,
      "aced": 7963,
      "limit": 7964,
      "amuse": 7965,
      "hats": 7966,
      "perce": 7967,
      "elections": 7968,
      "breathe": 7969,
      "stays": 7970,
      "ladder": 7971,
      "ESS": 7972,
      "angel": 7973,
      "Willy": 7974,
      "1966": 7975,
      "LET": 7976,
      "illegal": 7977,
      "Special": 7978,
      "thoroughly": 7979,
      "BUT": 7980,
      "ials": 7981,
      "jar": 7982,
      "units": 7983,
      "abilities": 7984,
      "mans": 7985,
      "dials": 7986,
      "disci": 7987,
      "clothing": 7988,
      "Commission": 7989,
      "mistakes": 7990,
      "stuffed": 7991,
      "facts": 7992,
      "govern": 7993,
      "Tech": 7994,
      "1951": 7995,
      "1952": 7996,
      "Follow": 7997,
      "titles": 7998,
      "programs": 7999,
      "Poland": 8000,
      "ticket": 8001,
      "groan": 8002,
      "Scholarship": 8003,
      "Federal": 8004,
      "commercial": 8005,
      "55": 8006,
      "Fu": 8007,
      "Ms": 8008,
      "Pas": 8009,
      "Raby": 8010,
      "Vene": 8011,
      "oop": 8012,
      "poured": 8013,
      "zburg": 8014,
      "enor": 8015,
      "steak": 8016,
      "iry": 8017,
      "unte": 8018,
      "tier": 8019,
      "ardy": 8020,
      "spending": 8021,
      "stores": 8022,
      "Anth": 8023,
      "parliament": 8024,
      "youngest": 8025,
      "efforts": 8026,
      "horrid": 8027,
      "1942": 8028,
      "confident": 8029,
      "reference": 8030,
      "concert": 8031,
      "Check": 8032,
      "AG": 8033,
      "Fü": 8034,
      "Line": 8035,
      "Pu": 8036,
      "Pur": 8037,
      "bree": 8038,
      "breed": 8039,
      "dign": 8040,
      "dared": 8041,
      "kit": 8042,
      "lamp": 8043,
      "tat": 8044,
      "oker": 8045,
      "spaghetti": 8046,
      "ROM": 8047,
      "chamber": 8048,
      "Asse": 8049,
      "EST": 8050,
      "Forest": 8051,
      "Absolutely": 8052,
      "Diandra": 8053,
      "naturally": 8054,
      "Kore": 8055,
      "limited": 8056,
      "Doesn": 8057,
      "threatened": 8058,
      "Irene": 8059,
      "executive": 8060,
      "statue": 8061,
      "achieve": 8062,
      "feathers": 8063,
      "bronze": 8064,
      "negative": 8065,
      "Apollo": 8066,
      "Crown": 8067,
      "Pig": 8068,
      "lings": 8069,
      "mant": 8070,
      "oons": 8071,
      "pies": 8072,
      "tag": 8073,
      "leans": 8074,
      "nowhere": 8075,
      "aloud": 8076,
      "beating": 8077,
      "begged": 8078,
      "okes": 8079,
      "absor": 8080,
      "worm": 8081,
      "igen": 8082,
      "cave": 8083,
      "addle": 8084,
      "laun": 8085,
      "ully": 8086,
      "scra": 8087,
      "inny": 8088,
      "consum": 8089,
      "relative": 8090,
      "1943": 8091,
      "Trust": 8092,
      "draws": 8093,
      "boring": 8094,
      "bags": 8095,
      "affection": 8096,
      "Hungarian": 8097,
      "thrust": 8098,
      "existence": 8099,
      "impact": 8100,
      "Nikki": 8101,
      "Metropolitan": 8102,
      "fierce": 8103,
      "Mas": 8104,
      "Nico": 8105,
      "UL": 8106,
      "ole": 8107,
      "admitted": 8108,
      "wipe": 8109,
      "acade": 8110,
      "ares": 8111,
      "ummhm": 8112,
      "indu": 8113,
      "suicide": 8114,
      "anyhow": 8115,
      "guar": 8116,
      "cler": 8117,
      "distant": 8118,
      "growth": 8119,
      "Harvard": 8120,
      "hopes": 8121,
      "goddess": 8122,
      "burnt": 8123,
      "Having": 8124,
      "Jefferson": 8125,
      "possession": 8126,
      "merely": 8127,
      "vacation": 8128,
      "troubles": 8129,
      "Windows": 8130,
      "desperate": 8131,
      "99": 8132,
      "Fif": 8133,
      "Mall": 8134,
      "Sad": 8135,
      "bars": 8136,
      "oples": 8137,
      "rr": 8138,
      "yards": 8139,
      "ams": 8140,
      "ela": 8141,
      "spin": 8142,
      "Chanti": 8143,
      "trap": 8144,
      "Dean": 8145,
      "Hope": 8146,
      "Bozo": 8147,
      "vari": 8148,
      "channels": 8149,
      "ruler": 8150,
      "Singh": 8151,
      "thirsty": 8152,
      "86": 8153,
      "BS": 8154,
      "Glor": 8155,
      "Mmm": 8156,
      "Rick": 8157,
      "Vin": 8158,
      "knot": 8159,
      "haust": 8160,
      "tif": 8161,
      "inder": 8162,
      "intend": 8163,
      "backwards": 8164,
      "disappear": 8165,
      "glanced": 8166,
      "pressing": 8167,
      "childhood": 8168,
      "uded": 8169,
      "cheek": 8170,
      "dram": 8171,
      "parade": 8172,
      "Hoover": 8173,
      "survey": 8174,
      "repeat": 8175,
      "collap": 8176,
      "Better": 8177,
      "subjects": 8178,
      "temperature": 8179,
      "Simon": 8180,
      "fucking": 8181,
      "Radio": 8182,
      "Drummond": 8183,
      "87": 8184,
      "Ga": 8185,
      "STO": 8186,
      "leap": 8187,
      "stamp": 8188,
      "haw": 8189,
      "tia": 8190,
      "ifer": 8191,
      "Margot": 8192,
      "merged": 8193,
      "SIS1": 8194,
      "URE": 8195,
      "icted": 8196,
      "normally": 8197,
      "Lewis": 8198,
      "sleepy": 8199,
      "solution": 8200,
      "rolls": 8201,
      "feeding": 8202,
      "techn": 8203,
      "addressed": 8204,
      "surrounded": 8205,
      "vegetables": 8206,
      "Aubrey": 8207,
      "Bank": 8208,
      "Cross": 8209,
      "Dro": 8210,
      "Dark": 8211,
      "Morgan": 8212,
      "WWE": 8213,
      "gne": 8214,
      "uto": 8215,
      "acious": 8216,
      "feature": 8217,
      "donkey": 8218,
      "intense": 8219,
      "prime": 8220,
      "musician": 8221,
      "Leg": 8222,
      "bands": 8223,
      "midst": 8224,
      "Lucy": 8225,
      "considerable": 8226,
      "increasing": 8227,
      "punishment": 8228,
      "satisfaction": 8229,
      "deserve": 8230,
      "railway": 8231,
      "expert": 8232,
      "vehicle": 8233,
      "explanation": 8234,
      "Chantilly": 8235,
      "AA": 8236,
      "Kur": 8237,
      "KING": 8238,
      "None": 8239,
      "Vava": 8240,
      "rip": 8241,
      "outs": 8242,
      "Theo": 8243,
      "ATE": 8244,
      "devil": 8245,
      "woh": 8246,
      "eatin": 8247,
      "shared": 8248,
      "contest": 8249,
      "Albert": 8250,
      "elev": 8251,
      "element": 8252,
      "Eddie": 8253,
      "Josh": 8254,
      "Work": 8255,
      "dreamed": 8256,
      "organiz": 8257,
      "commander": 8258,
      "collea": 8259,
      "rafton": 8260,
      "briefly": 8261,
      "Spring": 8262,
      "behavi": 8263,
      "Sweet": 8264,
      "naughty": 8265,
      "scale": 8266,
      "Dream": 8267,
      "DID": 8268,
      "Fight": 8269,
      "GER": 8270,
      "Jordan": 8271,
      "MS": 8272,
      "Valley": 8273,
      "WA": 8274,
      "wins": 8275,
      "vet": 8276,
      "agu": 8277,
      "pless": 8278,
      "guide": 8279,
      "disput": 8280,
      "discovery": 8281,
      "needle": 8282,
      "insurance": 8283,
      "Form": 8284,
      "Hero": 8285,
      "roller": 8286,
      "climbing": 8287,
      "Matthe": 8288,
      "criminal": 8289,
      "crayon": 8290,
      "valuable": 8291,
      "significant": 8292,
      "umbrella": 8293,
      "Camer": 8294,
      "Fre": 8295,
      "Main": 8296,
      "NT": 8297,
      "Wan": 8298,
      "ccer": 8299,
      "remarked": 8300,
      "towel": 8301,
      "belly": 8302,
      "hoo": 8303,
      "agents": 8304,
      "sale": 8305,
      "sometime": 8306,
      "partly": 8307,
      "hmm": 8308,
      "kshire": 8309,
      "Justin": 8310,
      "momma": 8311,
      "hums": 8312,
      "calendar": 8313,
      "Carter": 8314,
      "1955": 8315,
      "potam": 8316,
      "Kelly": 8317,
      "shield": 8318,
      "policeman": 8319,
      "Hugh": 8320,
      "Parker": 8321,
      "Spani": 8322,
      "revealed": 8323,
      "widow": 8324,
      "Pacific": 8325,
      "ribbon": 8326,
      "BBC": 8327,
      "Catherine": 8328,
      "Pa": 8329,
      "Rab": 8330,
      "WHO": 8331,
      "awoh": 8332,
      "thunder": 8333,
      "editor": 8334,
      "ulated": 8335,
      "geon": 8336,
      "stopping": 8337,
      "tryin": 8338,
      "lasted": 8339,
      "specially": 8340,
      "dragged": 8341,
      "dude": 8342,
      "steam": 8343,
      "crib": 8344,
      "destru": 8345,
      "cousins": 8346,
      "VERY": 8347,
      "tastes": 8348,
      "Bishop": 8349,
      "Anthony": 8350,
      "Assembly": 8351,
      "Beat": 8352,
      "Grafton": 8353,
      "Lor": 8354,
      "Mir": 8355,
      "Mister": 8356,
      "Sene": 8357,
      "cure": 8358,
      "eve": 8359,
      "tune": 8360,
      "ée": 8361,
      "attorney": 8362,
      "nood": 8363,
      "charts": 8364,
      "golf": 8365,
      "quant": 8366,
      "quack": 8367,
      "exhibit": 8368,
      "exhaust": 8369,
      "ARS": 8370,
      "perman": 8371,
      "guards": 8372,
      "bubble": 8373,
      "cleared": 8374,
      "shaking": 8375,
      "chall": 8376,
      "ANY": 8377,
      "visited": 8378,
      "Sean": 8379,
      "enjoying": 8380,
      "grief": 8381,
      "FIFA": 8382,
      "****": 8383,
      "Iranian": 8384,
      "nickname": 8385,
      "symbol": 8386,
      "diplo": 8387,
      "sacrifice": 8388,
      "Gulf": 8389,
      "Pete": 8390,
      "Twi": 8391,
      "TLE": 8392,
      "WHI": 8393,
      "bie": 8394,
      "dict": 8395,
      "refrigerator": 8396,
      "Start": 8397,
      "primary": 8398,
      "spots": 8399,
      "Edie": 8400,
      "leads": 8401,
      "Prague": 8402,
      "1962": 8403,
      "1950": 8404,
      "Michi": 8405,
      "Harvey": 8406,
      "staring": 8407,
      "virt": 8408,
      "turkey": 8409,
      "arrows": 8410,
      "Madam": 8411,
      "confirmed": 8412,
      "Certain": 8413,
      "pumpkin": 8414,
      "inspired": 8415,
      "Museum": 8416,
      "Bol": 8417,
      "Kaz": 8418,
      "Morning": 8419,
      "drank": 8420,
      "gates": 8421,
      "ii": 8422,
      "kitten": 8423,
      "mild": 8424,
      "rade": 8425,
      "rics": 8426,
      "inher": 8427,
      "levels": 8428,
      "outer": 8429,
      "wanting": 8430,
      "venue": 8431,
      "earch": 8432,
      "trace": 8433,
      "marbles": 8434,
      "positions": 8435,
      "Real": 8436,
      "pennies": 8437,
      "ulture": 8438,
      "----\"": 8439,
      "1944": 8440,
      "touches": 8441,
      "checking": 8442,
      "crept": 8443,
      "tails": 8444,
      "Peters": 8445,
      "independence": 8446,
      "impression": 8447,
      "fetch": 8448,
      "diamond": 8449,
      "guarant": 8450,
      "42": 8451,
      "IF": 8452,
      "Wars": 8453,
      "fasc": 8454,
      "joking": 8455,
      "isl": 8456,
      "hay": 8457,
      "sole": 8458,
      "unusual": 8459,
      "odes": 8460,
      "math": 8461,
      "ctic": 8462,
      "quis": 8463,
      "istics": 8464,
      "spray": 8465,
      "minor": 8466,
      "closing": 8467,
      "heading": 8468,
      "consult": 8469,
      "grain": 8470,
      "1961": 8471,
      "wishes": 8472,
      "greenbelt": 8473,
      "ridic": 8474,
      "GRUNT": 8475,
      "emphas": 8476,
      "arrive": 8477,
      "patients": 8478,
      "describe": 8479,
      "Nathan": 8480,
      "lobster": 8481,
      "Rachel": 8482,
      "Griffith": 8483,
      "Ew": 8484,
      "Eight": 8485,
      "Lill": 8486,
      "Pitt": 8487,
      "Pegg": 8488,
      "Rom": 8489,
      "batt": 8490,
      "tab": 8491,
      "alk": 8492,
      "una": 8493,
      "...\"": 8494,
      "shelf": 8495,
      "deli": 8496,
      "brace": 8497,
      "Dog": 8498,
      "mustn": 8499,
      "kindness": 8500,
      "vention": 8501,
      "survive": 8502,
      "volunte": 8503,
      "returning": 8504,
      "Joan": 8505,
      "1954": 8506,
      "1957": 8507,
      "1958": 8508,
      "1949": 8509,
      "HV7": 8510,
      "deeply": 8511,
      "ducks": 8512,
      "acquaint": 8513,
      "traditional": 8514,
      "annoyed": 8515,
      "effective": 8516,
      "launched": 8517,
      "77": 8518,
      "85": 8519,
      "92": 8520,
      "Bart": 8521,
      "FL": 8522,
      "Rol": 8523,
      "Wy": 8524,
      "jing": 8525,
      "oven": 8526,
      "pier": 8527,
      "zi": 8528,
      "bees": 8529,
      "webs": 8530,
      "termin": 8531,
      "usive": 8532,
      "dime": 8533,
      "sia": 8534,
      "Geography": 8535,
      "Order": 8536,
      "midnight": 8537,
      "protected": 8538,
      "successfully": 8539,
      "Class": 8540,
      "issued": 8541,
      "Among": 8542,
      "grim": 8543,
      "introduce": 8544,
      "regarded": 8545,
      "literature": 8546,
      "responded": 8547,
      "Skinner": 8548,
      "Banglad": 8549,
      "Bugs": 8550,
      "Cous": 8551,
      "Jessie": 8552,
      "Vice": 8553,
      "inhabit": 8554,
      "theme": 8555,
      "reput": 8556,
      "ora": 8557,
      "liqu": 8558,
      "marched": 8559,
      "shaped": 8560,
      "counsel": 8561,
      "Hosp": 8562,
      "Ask": 8563,
      "engage": 8564,
      "covering": 8565,
      "alongside": 8566,
      "dresses": 8567,
      "businessman": 8568,
      "operate": 8569,
      "Christians": 8570,
      "squad": 8571,
      "collect": 8572,
      "Kevin": 8573,
      "rades": 8574,
      "patience": 8575,
      "necklace": 8576,
      "Vienna": 8577,
      "wrapped": 8578,
      "Channel": 8579,
      "squeeze": 8580,
      "Meanwhile": 8581,
      "cillor": 8582,
      ";\"": 8583,
      "Card": 8584,
      "bach": 8585,
      "mt": 8586,
      "scold": 8587,
      "vs": 8588,
      "wret": 8589,
      "hears": 8590,
      "stan": 8591,
      "ATION": 8592,
      "sailed": 8593,
      "composed": 8594,
      "atell": 8595,
      "19th": 8596,
      "ppy": 8597,
      "parking": 8598,
      "talkin": 8599,
      "jected": 8600,
      "frustr": 8601,
      "nearby": 8602,
      "tribes": 8603,
      "1953": 8604,
      "invite": 8605,
      "secrets": 8606,
      "races": 8607,
      "represents": 8608,
      "Division": 8609,
      "ABOUT": 8610,
      "BR2": 8611,
      "prayer": 8612,
      "Fergus": 8613,
      "Aw": 8614,
      "Sri": 8615,
      "awards": 8616,
      "drain": 8617,
      "té": 8618,
      "uries": 8619,
      "wrap": 8620,
      "inte": 8621,
      "orter": 8622,
      "nothin": 8623,
      "doo": 8624,
      "dot": 8625,
      "lope": 8626,
      "peep": 8627,
      "pelled": 8628,
      "Hemings": 8629,
      "partners": 8630,
      "landing": 8631,
      "ggy": 8632,
      "smiles": 8633,
      "flung": 8634,
      "genus": 8635,
      "listed": 8636,
      "Broad": 8637,
      "swallow": 8638,
      "snip": 8639,
      "profession": 8640,
      "zero": 8641,
      "imagined": 8642,
      "vereign": 8643,
      "Half": 8644,
      "route": 8645,
      "Gladys": 8646,
      "Society": 8647,
      "Peggy": 8648,
      "Band": 8649,
      "Burn": 8650,
      "Fall": 8651,
      "Gall": 8652,
      "Lane": 8653,
      "NI": 8654,
      "Tru": 8655,
      "Wr": 8656,
      "fles": 8657,
      "gender": 8658,
      "pork": 8659,
      "yla": 8660,
      "ern": 8661,
      "melt": 8662,
      "weigh": 8663,
      "byn": 8664,
      "convin": 8665,
      "compo": 8666,
      "igno": 8667,
      "intention": 8668,
      "hastily": 8669,
      "prices": 8670,
      "ruin": 8671,
      "Becket": 8672,
      "Arts": 8673,
      "Brand": 8674,
      "Force": 8675,
      "laying": 8676,
      "sunny": 8677,
      "osity": 8678,
      "reasonable": 8679,
      "Shaw": 8680,
      "ronic": 8681,
      "Merry": 8682,
      "bbie": 8683,
      "LIKE": 8684,
      "Grandma": 8685,
      "Franklin": 8686,
      "economy": 8687,
      "Holmes": 8688,
      "descend": 8689,
      "criteria": 8690,
      "400": 8691,
      "89": 8692,
      "Ama": 8693,
      "Hulk": 8694,
      "hab": 8695,
      "hamm": 8696,
      "roses": 8697,
      "gos": 8698,
      "weary": 8699,
      "cells": 8700,
      "feared": 8701,
      "Hebrew": 8702,
      "whoever": 8703,
      "torn": 8704,
      "reaches": 8705,
      "scor": 8706,
      "scram": 8707,
      "suppor": 8708,
      "LOOK": 8709,
      "relation": 8710,
      "Joey": 8711,
      "strongly": 8712,
      "facing": 8713,
      "shift": 8714,
      "remaining": 8715,
      "scored": 8716,
      "Hallo": 8717,
      "debt": 8718,
      "debate": 8719,
      "constant": 8720,
      "Gloria": 8721,
      "95": 8722,
      "Gary": 8723,
      "Ninten": 8724,
      "OL": 8725,
      "Olive": 8726,
      "Pep": 8727,
      "Ran": 8728,
      "bade": 8729,
      "dum": 8730,
      "dwell": 8731,
      "knight": 8732,
      "yield": 8733,
      "toi": 8734,
      "aspect": 8735,
      "irts": 8736,
      "teasing": 8737,
      "apers": 8738,
      "leton": 8739,
      "ureau": 8740,
      "selfish": 8741,
      "headquarters": 8742,
      "tension": 8743,
      "identity": 8744,
      "dating": 8745,
      "distinct": 8746,
      "valid": 8747,
      "interests": 8748,
      "execution": 8749,
      "YEAH": 8750,
      "Nintendo": 8751,
      "Amand": 8752,
      "Cind": 8753,
      "Dave": 8754,
      "Gab": 8755,
      "Kal": 8756,
      "NEW": 8757,
      "Sav": 8758,
      "atmo": 8759,
      "llor": 8760,
      "arse": 8761,
      "alike": 8762,
      "robe": 8763,
      "intent": 8764,
      "haste": 8765,
      "inspe": 8766,
      "Cool": 8767,
      "Howard": 8768,
      "Enter": 8769,
      "hearted": 8770,
      "answering": 8771,
      "Gray": 8772,
      "eyed": 8773,
      "Lucas": 8774,
      "axy": 8775,
      "reaching": 8776,
      "Elite": 8777,
      "Between": 8778,
      "prepare": 8779,
      "macaron": 8780,
      "historic": 8781,
      "shelter": 8782,
      "Grammy": 8783,
      "Hospital": 8784,
      "\").": 8785,
      "64": 8786,
      "Age": 8787,
      "Kill": 8788,
      "Lisa": 8789,
      "MR": 8790,
      "Ni": 8791,
      "Story": 8792,
      "twin": 8793,
      "asion": 8794,
      "arose": 8795,
      "stated": 8796,
      "hie": 8797,
      "abroad": 8798,
      "shepher": 8799,
      "device": 8800,
      "estic": 8801,
      "exped": 8802,
      "Thor": 8803,
      "clar": 8804,
      "bleed": 8805,
      "carbon": 8806,
      "ggie": 8807,
      "regional": 8808,
      "ultural": 8809,
      "Post": 8810,
      "burden": 8811,
      "albums": 8812,
      "operating": 8813,
      "1939": 8814,
      "suitcase": 8815,
      "Rodney": 8816,
      "latest": 8817,
      "discipl": 8818,
      "Korean": 8819,
      "67": 8820,
      "Finn": 8821,
      "Khan": 8822,
      "Mah": 8823,
      "Nine": 8824,
      "rors": 8825,
      "review": 8826,
      "asper": 8827,
      "orrow": 8828,
      "stair": 8829,
      "beet": 8830,
      "bells": 8831,
      "rifle": 8832,
      "agan": 8833,
      "tial": 8834,
      "peoples": 8835,
      "raising": 8836,
      "quer": 8837,
      "cker": 8838,
      "causing": 8839,
      "offering": 8840,
      "dith": 8841,
      "gras": 8842,
      "spelling": 8843,
      "elements": 8844,
      "jolly": 8845,
      "grapher": 8846,
      "kidna": 8847,
      "Poll": 8848,
      "steady": 8849,
      "OKAY": 8850,
      "ginger": 8851,
      "studying": 8852,
      "Nichol": 8853,
      "intelligence": 8854,
      "constantly": 8855,
      "Carolina": 8856,
      "mystery": 8857,
      "Katie": 8858,
      "Junior": 8859,
      "José": 8860,
      "cigaret": 8861,
      "constituency": 8862,
      "Venez": 8863,
      "Diana": 8864,
      "FR": 8865,
      "Hans": 8866,
      "Tag": 8867,
      "gross": 8868,
      "mr": 8869,
      "ygen": 8870,
      "thumb": 8871,
      "render": 8872,
      "dock": 8873,
      "limp": 8874,
      "locks": 8875,
      "aman": 8876,
      "devoted": 8877,
      "conspir": 8878,
      "1929": 8879,
      "akota": 8880,
      "mbur": 8881,
      "moral": 8882,
      "Harwood": 8883,
      "Foreign": 8884,
      "vanished": 8885,
      "speaker": 8886,
      "potential": 8887,
      "summon": 8888,
      "aboard": 8889,
      "THAN": 8890,
      "Steven": 8891,
      "searching": 8892,
      "arrival": 8893,
      "extraordinary": 8894,
      "prayers": 8895,
      "Times": 8896,
      "Wayne": 8897,
      "Laugh": 8898,
      "charming": 8899,
      "hippopotam": 8900,
      "Doubs": 8901,
      "challeng": 8902,
      "macaroni": 8903,
      "Baker": 8904,
      "Eva": 8905,
      "Lam": 8906,
      "Tro": 8907,
      "Ul": 8908,
      "hint": 8909,
      "ithe": 8910,
      "mice": 8911,
      "mbr": 8912,
      "attr": 8913,
      "alys": 8914,
      "plor": 8915,
      "ques": 8916,
      "Rosam": 8917,
      "muff": 8918,
      "counted": 8919,
      "identify": 8920,
      "polite": 8921,
      "jelly": 8922,
      "sentences": 8923,
      "Peru": 8924,
      "Maryland": 8925,
      "knocks": 8926,
      "mounted": 8927,
      "porch": 8928,
      "kilo": 8929,
      "techni": 8930,
      "gloves": 8931,
      "tremend": 8932,
      "Antonio": 8933,
      "incredible": 8934,
      "enormous": 8935,
      "Os": 8936,
      "fiction": 8937,
      "sust": 8938,
      "torian": 8939,
      "hired": 8940,
      "comrades": 8941,
      "exact": 8942,
      "dia": 8943,
      "udd": 8944,
      "shops": 8945,
      "crashed": 8946,
      "joining": 8947,
      "breaks": 8948,
      "2024": 8949,
      "tribut": 8950,
      "warrant": 8951,
      "deaths": 8952,
      "territory": 8953,
      "candle": 8954,
      "generous": 8955,
      "Polit": 8956,
      "commanded": 8957,
      "SIG": 8958,
      "Palace": 8959,
      "protests": 8960,
      "lux": 8961,
      "remarkable": 8962,
      "nodded": 8963,
      "Atlantic": 8964,
      "inhabitants": 8965,
      "DNA": 8966,
      "Nay": 8967,
      "dea": 8968,
      "emot": 8969,
      "lid": 8970,
      "rous": 8971,
      "inform": 8972,
      "sting": 8973,
      "idy": 8974,
      "loan": 8975,
      "contains": 8976,
      "woof": 8977,
      "mental": 8978,
      ".\"]": 8979,
      "Things": 8980,
      "barrel": 8981,
      "collected": 8982,
      "Color": 8983,
      "1938": 8984,
      "banana": 8985,
      "kissing": 8986,
      "WELL": 8987,
      "buttons": 8988,
      "gallant": 8989,
      "demanded": 8990,
      "Swedish": 8991,
      "Pierre": 8992,
      "Public": 8993,
      "LITTLE": 8994,
      "Cousin": 8995,
      "Dete": 8996,
      "Elo": 8997,
      "Krist": 8998,
      "Mis": 8999,
      "Ocean": 9000,
      "fid": 9001,
      "mour": 9002,
      "tuck": 9003,
      "assure": 9004,
      "icated": 9005,
      "unexpected": 9006,
      "pective": 9007,
      "shells": 9008,
      "endy": 9009,
      "imprison": 9010,
      "disagree": 9011,
      "marsh": 9012,
      "scul": 9013,
      "muscles": 9014,
      "genius": 9015,
      "180": 9016,
      "Carl": 9017,
      "annual": 9018,
      "terribly": 9019,
      "puzzled": 9020,
      "susp": 9021,
      "employment": 9022,
      "--------------------------------": 9023,
      "receiving": 9024,
      "associated": 9025,
      "recommend": 9026,
      "Representatives": 9027,
      "glorious": 9028,
      "Michigan": 9029,
      "Clau": 9030,
      "Hil": 9031,
      "Riley": 9032,
      "bai": 9033,
      "ives": 9034,
      "atom": 9035,
      "rever": 9036,
      "revenge": 9037,
      "edition": 9038,
      "leather": 9039,
      "chy": 9040,
      "chased": 9041,
      "unconscious": 9042,
      "holy": 9043,
      "agers": 9044,
      "uled": 9045,
      "imme": 9046,
      "shade": 9047,
      "Therefore": 9048,
      "fined": 9049,
      "Bee": 9050,
      "cares": 9051,
      "Brook": 9052,
      "thankful": 9053,
      "solve": 9054,
      "swept": 9055,
      "cooked": 9056,
      "dealing": 9057,
      "corre": 9058,
      "culiar": 9059,
      "refuse": 9060,
      "danced": 9061,
      "educated": 9062,
      "scientist": 9063,
      "fashioned": 9064,
      "Miriam": 9065,
      "Arabic": 9066,
      "Talk": 9067,
      "cadet": 9068,
      "GIRL": 9069,
      "Julius": 9070,
      "oxygen": 9071,
      "Czech": 9072,
      "convinced": 9073,
      "Amanda": 9074,
      "\"),": 9075,
      "Bow": 9076,
      "DA": 9077,
      "EL": 9078,
      "Ford": 9079,
      "Psy": 9080,
      "Ric": 9081,
      "Sop": 9082,
      "Var": 9083,
      "fts": 9084,
      "hino": 9085,
      "nas": 9086,
      "sweetheart": 9087,
      "zard": 9088,
      "ão": 9089,
      "inent": 9090,
      "alt": 9091,
      "behalf": 9092,
      "goat": 9093,
      "accompan": 9094,
      "peculiar": 9095,
      "deliber": 9096,
      "spong": 9097,
      "backs": 9098,
      "fake": 9099,
      "lawn": 9100,
      "monarch": 9101,
      "broom": 9102,
      "household": 9103,
      "shovel": 9104,
      "strangers": 9105,
      "fron": 9106,
      "conscience": 9107,
      "calcul": 9108,
      "Franco": 9109,
      "1940": 9110,
      "Spea": 9111,
      "throws": 9112,
      "sweetie": 9113,
      "refere": 9114,
      "Corpor": 9115,
      "labour": 9116,
      "Palest": 9117,
      "Voice": 9118,
      "psycho": 9119,
      "sympathy": 9120,
      "conductor": 9121,
      "adventures": 9122,
      "furious": 9123,
      "Honor": 9124,
      "assem": 9125,
      "Dynam": 9126,
      "cabinet": 9127,
      "assured": 9128,
      "Bacon": 9129,
      "interrupted": 9130,
      "Pretty": 9131,
      "2nd": 9132,
      "41": 9133,
      "Det": 9134,
      "Pene": 9135,
      "Sho": 9136,
      "Treat": 9137,
      "VID": 9138,
      "gation": 9139,
      "kicked": 9140,
      "swell": 9141,
      "xed": 9142,
      "stab": 9143,
      "hambur": 9144,
      "goo": 9145,
      "sovereign": 9146,
      "unted": 9147,
      "unning": 9148,
      "shone": 9149,
      "Instead": 9150,
      "clas": 9151,
      "display": 9152,
      "Stra": 9153,
      "compar": 9154,
      "placing": 9155,
      "Harris": 9156,
      "confusion": 9157,
      "invitation": 9158,
      "expand": 9159,
      "instantly": 9160,
      "expressed": 9161,
      "Lawyer": 9162,
      "loaded": 9163,
      "copies": 9164,
      "JOA": 9165,
      "poetry": 9166,
      "Graham": 9167,
      "Mansfield": 9168,
      "academic": 9169,
      "79": 9170,
      "Az": 9171,
      "Case": 9172,
      "Corn": 9173,
      "DAY": 9174,
      "Game": 9175,
      "fs": 9176,
      "jab": 9177,
      "mim": 9178,
      "rase": 9179,
      "wen": 9180,
      "argu": 9181,
      "stiff": 9182,
      "gown": 9183,
      "riot": 9184,
      "lio": 9185,
      "hook": 9186,
      "aga": 9187,
      "poll": 9188,
      "rais": 9189,
      "blah": 9190,
      "retreat": 9191,
      "Stat": 9192,
      "pson": 9193,
      "Chance": 9194,
      "tennis": 9195,
      "Bevis": 9196,
      "despite": 9197,
      "movements": 9198,
      "grounds": 9199,
      "frown": 9200,
      "END": 9201,
      "Miche": 9202,
      "basic": 9203,
      "sneak": 9204,
      "refu": 9205,
      "defense": 9206,
      "jamas": 9207,
      "Persian": 9208,
      "Navy": 9209,
      "igenous": 9210,
      "Certainly": 9211,
      "Amb": 9212,
      "Cir": 9213,
      "Donna": 9214,
      "Dakota": 9215,
      "Lion": 9216,
      "WANT": 9217,
      "Yor": 9218,
      "frank": 9219,
      "zu": 9220,
      "injury": 9221,
      "rejo": 9222,
      "tori": 9223,
      "uts": 9224,
      "cano": 9225,
      "manners": 9226,
      "ulting": 9227,
      "whoop": 9228,
      "immen": 9229,
      "1920": 9230,
      "goods": 9231,
      "Marian": 9232,
      "Solo": 9233,
      "Coch": 9234,
      "balloons": 9235,
      "traitor": 9236,
      "Gook": 9237,
      "seventh": 9238,
      "Manor": 9239,
      "1941": 9240,
      "treaty": 9241,
      "1935": 9242,
      "ennes": 9243,
      "Corbyn": 9244,
      "harsh": 9245,
      "Finally": 9246,
      "gorge": 9247,
      "Civil": 9248,
      "dolph": 9249,
      "Evans": 9250,
      "sufficient": 9251,
      "employe": 9252,
      "Colomb": 9253,
      "Twila": 9254,
      "Venezuel": 9255,
      ".)": 9256,
      "Chat": 9257,
      "Him": 9258,
      "Kay": 9259,
      "Nel": 9260,
      "Ret": 9261,
      "Sat": 9262,
      "recovered": 9263,
      "tops": 9264,
      "inger": 9265,
      "ardo": 9266,
      "idi": 9267,
      "chasing": 9268,
      "adm": 9269,
      "rivers": 9270,
      "limb": 9271,
      "ante": 9272,
      "depend": 9273,
      "owed": 9274,
      "1926": 9275,
      "fame": 9276,
      "obvious": 9277,
      "controlled": 9278,
      "Almost": 9279,
      "Indust": 9280,
      "Notting": 9281,
      "Except": 9282,
      "Tomorrow": 9283,
      "crossing": 9284,
      "approxim": 9285,
      "Thanksgiving": 9286,
      "strawberry": 9287,
      "niece": 9288,
      "chestra": 9289,
      "executed": 9290,
      "liberal": 9291,
      "license": 9292,
      "Jennifer": 9293,
      "participated": 9294,
      "skills": 9295,
      "pattern": 9296,
      "warrior": 9297,
      "LAUGHING": 9298,
      "Pakistan": 9299,
      "83": 9300,
      "97": 9301,
      "Bry": 9302,
      "Cre": 9303,
      "GOT": 9304,
      "Gran": 9305,
      "Ki": 9306,
      "Mem": 9307,
      "fre": 9308,
      "satell": 9309,
      "zan": 9310,
      "intim": 9311,
      "eno": 9312,
      "ceased": 9313,
      "makin": 9314,
      "comments": 9315,
      "istry": 9316,
      "ains": 9317,
      "Third": 9318,
      "clergy": 9319,
      "babbling": 9320,
      "fathers": 9321,
      "syn": 9322,
      "Brooks": 9323,
      "arent": 9324,
      "lane": 9325,
      "ighth": 9326,
      "butterflies": 9327,
      "farmers": 9328,
      "chips": 9329,
      "Belgi": 9330,
      "accompanied": 9331,
      "Ky": 9332,
      "Ker": 9333,
      "RING": 9334,
      "Wendy": 9335,
      "hh": 9336,
      "pace": 9337,
      "thri": 9338,
      "revol": 9339,
      "allig": 9340,
      "hio": 9341,
      "urer": 9342,
      "autom": 9343,
      "combin": 9344,
      "impressed": 9345,
      "Marion": 9346,
      "Mario": 9347,
      "Cook": 9348,
      "lighted": 9349,
      "ctors": 9350,
      "appeal": 9351,
      "OULD": 9352,
      "mistaken": 9353,
      "villages": 9354,
      "Conne": 9355,
      "Track": 9356,
      "Peace": 9357,
      "curi": 9358,
      "gasped": 9359,
      "parent": 9360,
      "smoking": 9361,
      "necessarily": 9362,
      "separated": 9363,
      "Viet": 9364,
      "Offic": 9365,
      "depends": 9366,
      "cadets": 9367,
      "script": 9368,
      "capture": 9369,
      "batteries": 9370,
      "PLAYING": 9371,
      "website": 9372,
      "?[": 9373,
      "Bush": 9374,
      "CLI": 9375,
      "Econ": 9376,
      "Niger": 9377,
      "ored": 9378,
      "rates": 9379,
      "anthem": 9380,
      "recall": 9381,
      "meter": 9382,
      "seeds": 9383,
      "hache": 9384,
      "entry": 9385,
      "sailing": 9386,
      "cane": 9387,
      "deput": 9388,
      "decent": 9389,
      "opposition": 9390,
      "exceed": 9391,
      "stomac": 9392,
      "talent": 9393,
      "longed": 9394,
      "glory": 9395,
      "voiced": 9396,
      "nicely": 9397,
      "amaze": 9398,
      "paused": 9399,
      "laughingly": 9400,
      "Guys": 9401,
      "cotton": 9402,
      "repair": 9403,
      "variety": 9404,
      "clubs": 9405,
      "municipalities": 9406,
      "motorcycle": 9407,
      "bullet": 9408,
      "Silver": 9409,
      "reckon": 9410,
      "ezes": 9411,
      "neighbors": 9412,
      "Biography": 9413,
      "Diego": 9414,
      "Egyptian": 9415,
      "permanent": 9416,
      "Pitts": 9417,
      "atmosphere": 9418,
      "Cochran": 9419,
      "\"\"": 9420,
      ".?": 9421,
      "Karen": 9422,
      "Kai": 9423,
      "Mind": 9424,
      "Science": 9425,
      "Sounds": 9426,
      "ooh": 9427,
      "rical": 9428,
      "thedr": 9429,
      "reaction": 9430,
      "reviews": 9431,
      "semi": 9432,
      "beloved": 9433,
      "aya": 9434,
      "lims": 9435,
      "enti": 9436,
      "hockey": 9437,
      "ampton": 9438,
      "urban": 9439,
      "antis": 9440,
      "resign": 9441,
      "1925": 9442,
      "Marine": 9443,
      "disappointment": 9444,
      "longing": 9445,
      "longest": 9446,
      "Unless": 9447,
      "attitude": 9448,
      "centuries": 9449,
      "Forget": 9450,
      "drives": 9451,
      "circles": 9452,
      "borne": 9453,
      "hangs": 9454,
      "memories": 9455,
      "Salzburg": 9456,
      "lords": 9457,
      "folded": 9458,
      "celebrate": 9459,
      "vocalization": 9460,
      "incorpor": 9461,
      "toilet": 9462,
      "Eloise": 9463,
      "stomachache": 9464,
      "Area": 9465,
      "LW": 9466,
      "bend": 9467,
      "lers": 9468,
      "sis": 9469,
      "wars": 9470,
      "toria": 9471,
      "itals": 9472,
      "ales": 9473,
      "wig": 9474,
      "odi": 9475,
      "peek": 9476,
      "poles": 9477,
      "suits": 9478,
      "extin": 9479,
      "1928": 9480,
      "shri": 9481,
      "trump": 9482,
      "orton": 9483,
      "prior": 9484,
      "akh": 9485,
      "consent": 9486,
      "Sara": 9487,
      "creating": 9488,
      "APP": 9489,
      "Indiana": 9490,
      "generation": 9491,
      "COU3": 9492,
      "Samuel": 9493,
      "photos": 9494,
      "ALLY": 9495,
      "Fern": 9496,
      "pouring": 9497,
      "pitcher": 9498,
      "drowned": 9499,
      "envelope": 9500,
      "ridiculous": 9501,
      "hippopotamus": 9502,
      "Detective": 9503,
      "Emi": 9504,
      "Lomb": 9505,
      "MUS": 9506,
      "Oak": 9507,
      "Rel": 9508,
      "Tree": 9509,
      "iv": 9510,
      "muttered": 9511,
      "ological": 9512,
      "yon": 9513,
      "ener": 9514,
      "heels": 9515,
      "sem": 9516,
      "seas": 9517,
      "umper": 9518,
      "nails": 9519,
      "lookin": 9520,
      "Martha": 9521,
      "ruined": 9522,
      "zzo": 9523,
      "shaw": 9524,
      "scrap": 9525,
      "compli": 9526,
      "rung": 9527,
      "numerous": 9528,
      "gene": 9529,
      "Bridge": 9530,
      "announce": 9531,
      "Davis": 9532,
      "oscope": 9533,
      "Clark": 9534,
      "bench": 9535,
      "patiently": 9536,
      "tropical": 9537,
      "Olympic": 9538,
      "officials": 9539,
      "Greeks": 9540,
      "Grandpa": 9541,
      "budget": 9542,
      "Airport": 9543,
      "Popeye": 9544,
      "principal": 9545,
      "troubled": 9546,
      "administration": 9547,
      "Roland": 9548,
      "flesh": 9549,
      "Dynamite": 9550,
      "Blan": 9551,
      "GU": 9552,
      "MBER": 9553,
      "TR": 9554,
      "Train": 9555,
      "festival": 9556,
      "kite": 9557,
      "ashi": 9558,
      "meow": 9559,
      "stations": 9560,
      "soo": 9561,
      "hops": 9562,
      "ambit": 9563,
      "nearest": 9564,
      "INE": 9565,
      "offers": 9566,
      "diary": 9567,
      "Whit": 9568,
      "helpless": 9569,
      "scorn": 9570,
      "Ant": 9571,
      "inners": 9572,
      "Always": 9573,
      "Loire": 9574,
      "sticky": 9575,
      "steep": 9576,
      "vio": 9577,
      "Coming": 9578,
      "Comté": 9579,
      "1960s": 9580,
      "Franche": 9581,
      "operated": 9582,
      "kerchief": 9583,
      "SEE": 9584,
      "Muslims": 9585,
      "unique": 9586,
      "Studi": 9587,
      "Banbury": 9588,
      "invented": 9589,
      "magnific": 9590,
      "Foundation": 9591,
      "ketchup": 9592,
      "Afghanistan": 9593,
      "destruction": 9594,
      "Griffiths": 9595,
      "Nicholas": 9596,
      "Ain": 9597,
      "Ellen": 9598,
      "Haw": 9599,
      "Matt": 9600,
      "knights": 9601,
      "inary": 9602,
      "anny": 9603,
      "edy": 9604,
      "stout": 9605,
      "gogne": 9606,
      "rik": 9607,
      "lover": 9608,
[...]
